{"version": "1.0", "truncation": null, "padding": null, "added_tokens": [{"id": 128000, "content": "<|begin_of_text|>", "single_word": false, "lstrip": false, "rstrip": false, "normalized": false, "special": true}, {"id": 128001, "content": "<|end_of_text|>", "single_word": false, "lstrip": false, "rstrip": false, "normalized": false, "special": true}, {"id": 128002, "content": "<|reserved_special_token_0|>", "single_word": false, "lstrip": false, "rstrip": false, "normalized": false, "special": true}, {"id": 128003, "content": "<|reserved_special_token_1|>", "single_word": false, "lstrip": false, "rstrip": false, "normalized": false, "special": true}, {"id": 128004, "content": "<|finetune_right_pad_id|>", "single_word": false, "lstrip": false, "rstrip": false, "normalized": false, "special": true}, {"id": 128005, "content": "<|reserved_special_token_2|>", "single_word": false, "lstrip": false, "rstrip": false, "normalized": false, "special": true}, {"id": 128006, "content": "<|start_header_id|>", "single_word": false, "lstrip": false, "rstrip": false, "normalized": false, "special": true}, {"id": 128007, "content": "<|end_header_id|>", "single_word": false, "lstrip": false, "rstrip": false, "normalized": false, "special": true}, {"id": 128008, "content": "<|eom_id|>", "single_word": false, "lstrip": false, "rstrip": false, "normalized": false, "special": true}, {"id": 128009, "content": "<|eot_id|>", "single_word": false, "lstrip": false, "rstrip": false, "normalized": false, "special": true}, {"id": 128010, "content": "<|python_tag|>", "single_word": false, "lstrip": false, "rstrip": false, "normalized": false, "special": true}, {"id": 128011, "content": "<|reserved_special_token_3|>", "single_word": false, "lstrip": false, "rstrip": false, "normalized": false, "special": true}, {"id": 128012, "content": "<|reserved_special_token_4|>", "single_word": false, "lstrip": false, "rstrip": false, "normalized": false, "special": true}, {"id": 128013, "content": "<|reserved_special_token_5|>", "single_word": false, "lstrip": false, "rstrip": false, "normalized": false, "special": true}, {"id": 128014, "content": "<|reserved_special_token_6|>", "single_word": false, "lstrip": false, "rstrip": false, "normalized": false, "special": true}, {"id": 128015, "content": "<|reserved_special_token_7|>", "single_word": false, "lstrip": false, "rstrip": false, "normalized": false, "special": true}, {"id": 128016, "content": "<|reserved_special_token_8|>", "single_word": false, "lstrip": false, "rstrip": false, "normalized": false, "special": true}, {"id": 128017, "content": "<|reserved_special_token_9|>", "single_word": false, "lstrip": false, "rstrip": false, "normalized": false, "special": true}, {"id": 128018, "content": "<|reserved_special_token_10|>", "single_word": false, "lstrip": false, "rstrip": false, "normalized": false, "special": true}, {"id": 128019, "content": "<|reserved_special_token_11|>", "single_word": false, "lstrip": false, "rstrip": false, "normalized": false, "special": true}, {"id": 128020, "content": "<|reserved_special_token_12|>", "single_word": false, "lstrip": false, "rstrip": false, "normalized": false, "special": true}, {"id": 128021, "content": "<|reserved_special_token_13|>", "single_word": false, "lstrip": false, "rstrip": false, "normalized": false, "special": true}, {"id": 128022, "content": "<|reserved_special_token_14|>", "single_word": false, "lstrip": false, "rstrip": false, "normalized": false, "special": true}, {"id": 128023, "content": "<|reserved_special_token_15|>", "single_word": false, "lstrip": false, "rstrip": false, "normalized": false, "special": true}, {"id": 128024, "content": "<|reserved_special_token_16|>", "single_word": false, "lstrip": false, "rstrip": false, "normalized": false, "special": true}, {"id": 128025, "content": "<|reserved_special_token_17|>", "single_word": false, "lstrip": false, "rstrip": false, "normalized": false, "special": true}, {"id": 128026, "content": "<|reserved_special_token_18|>", "single_word": false, "lstrip": false, "rstrip": false, "normalized": false, "special": true}, {"id": 128027, "content": "<|reserved_special_token_19|>", "single_word": false, "lstrip": false, "rstrip": false, "normalized": false, "special": true}, {"id": 128028, "content": "<|reserved_special_token_20|>", "single_word": false, "lstrip": false, "rstrip": false, "normalized": false, "special": true}, {"id": 128029, "content": "<|reserved_special_token_21|>", "single_word": false, "lstrip": false, "rstrip": false, "normalized": false, "special": true}, {"id": 128030, "content": "<|reserved_special_token_22|>", "single_word": false, "lstrip": false, "rstrip": false, "normalized": false, "special": true}, {"id": 128031, "content": "<|reserved_special_token_23|>", "single_word": false, "lstrip": false, "rstrip": false, "normalized": false, "special": true}, {"id": 128032, "content": "<|reserved_special_token_24|>", "single_word": false, "lstrip": false, "rstrip": false, "normalized": false, "special": true}, {"id": 128033, "content": "<|reserved_special_token_25|>", "single_word": false, "lstrip": false, "rstrip": false, "normalized": false, "special": true}, {"id": 128034, "content": "<|reserved_special_token_26|>", "single_word": false, "lstrip": false, "rstrip": false, "normalized": false, "special": true}, {"id": 128035, "content": "<|reserved_special_token_27|>", "single_word": false, "lstrip": false, "rstrip": false, "normalized": false, "special": true}, {"id": 128036, "content": "<|reserved_special_token_28|>", "single_word": false, "lstrip": false, "rstrip": false, "normalized": false, "special": true}, {"id": 128037, "content": "<|reserved_special_token_29|>", "single_word": false, "lstrip": false, "rstrip": false, "normalized": false, "special": true}, {"id": 128038, "content": "<|reserved_special_token_30|>", "single_word": false, "lstrip": false, "rstrip": false, "normalized": false, "special": true}, {"id": 128039, "content": "<|reserved_special_token_31|>", "single_word": false, "lstrip": false, "rstrip": false, "normalized": false, "special": true}, {"id": 128040, "content": "<|reserved_special_token_32|>", "single_word": false, "lstrip": false, "rstrip": false, "normalized": false, "special": true}, {"id": 128041, "content": "<|reserved_special_token_33|>", "single_word": false, "lstrip": false, "rstrip": false, "normalized": false, "special": true}, {"id": 128042, "content": "<|reserved_special_token_34|>", "single_word": false, "lstrip": false, "rstrip": false, "normalized": false, "special": true}, {"id": 128043, "content": "<|reserved_special_token_35|>", "single_word": false, "lstrip": false, "rstrip": false, "normalized": false, "special": true}, {"id": 128044, "content": "<|reserved_special_token_36|>", "single_word": false, "lstrip": false, "rstrip": false, "normalized": false, "special": true}, {"id": 128045, "content": "<|reserved_special_token_37|>", "single_word": false, "lstrip": false, "rstrip": false, "normalized": false, "special": true}, {"id": 128046, "content": "<|reserved_special_token_38|>", "single_word": false, "lstrip": false, "rstrip": false, "normalized": false, "special": true}, {"id": 128047, "content": "<|reserved_special_token_39|>", "single_word": false, "lstrip": false, "rstrip": false, "normalized": false, "special": true}, {"id": 128048, "content": "<|reserved_special_token_40|>", "single_word": false, "lstrip": false, "rstrip": false, "normalized": false, "special": true}, {"id": 128049, "content": "<|reserved_special_token_41|>", "single_word": false, "lstrip": false, "rstrip": false, "normalized": false, "special": true}, {"id": 128050, "content": "<|reserved_special_token_42|>", "single_word": false, "lstrip": false, "rstrip": false, "normalized": false, "special": true}, {"id": 128051, "content": "<|reserved_special_token_43|>", "single_word": false, "lstrip": false, "rstrip": false, "normalized": false, "special": true}, {"id": 128052, "content": "<|reserved_special_token_44|>", "single_word": false, "lstrip": false, "rstrip": false, "normalized": false, "special": true}, {"id": 128053, "content": "<|reserved_special_token_45|>", "single_word": false, "lstrip": false, "rstrip": false, "normalized": false, "special": true}, {"id": 128054, "content": "<|reserved_special_token_46|>", "single_word": false, "lstrip": false, "rstrip": false, "normalized": false, "special": true}, {"id": 128055, "content": "<|reserved_special_token_47|>", "single_word": false, "lstrip": false, "rstrip": false, "normalized": false, "special": true}, {"id": 128056, "content": "<|reserved_special_token_48|>", "single_word": false, "lstrip": false, "rstrip": false, "normalized": false, "special": true}, {"id": 128057, "content": "<|reserved_special_token_49|>", "single_word": false, "lstrip": false, "rstrip": false, "normalized": false, "special": true}, {"id": 128058, "content": "<|reserved_special_token_50|>", "single_word": false, "lstrip": false, "rstrip": false, "normalized": false, "special": true}, {"id": 128059, "content": "<|reserved_special_token_51|>", "single_word": false, "lstrip": false, "rstrip": false, "normalized": false, "special": true}, {"id": 128060, "content": "<|reserved_special_token_52|>", "single_word": false, "lstrip": false, "rstrip": false, "normalized": false, "special": true}, {"id": 128061, "content": "<|reserved_special_token_53|>", "single_word": false, "lstrip": false, "rstrip": false, "normalized": false, "special": true}, {"id": 128062, "content": "<|reserved_special_token_54|>", "single_word": false, "lstrip": false, "rstrip": false, "normalized": false, "special": true}, {"id": 128063, "content": "<|reserved_special_token_55|>", "single_word": false, "lstrip": false, "rstrip": false, "normalized": false, "special": true}, {"id": 128064, "content": "<|reserved_special_token_56|>", "single_word": false, "lstrip": false, "rstrip": false, "normalized": false, "special": true}, {"id": 128065, "content": "<|reserved_special_token_57|>", "single_word": false, "lstrip": false, "rstrip": false, "normalized": false, "special": true}, {"id": 128066, "content": "<|reserved_special_token_58|>", "single_word": false, "lstrip": false, "rstrip": false, "normalized": false, "special": true}, {"id": 128067, "content": "<|reserved_special_token_59|>", "single_word": false, "lstrip": false, "rstrip": false, "normalized": false, "special": true}, {"id": 128068, "content": "<|reserved_special_token_60|>", "single_word": false, "lstrip": false, "rstrip": false, "normalized": false, "special": true}, {"id": 128069, "content": "<|reserved_special_token_61|>", "single_word": false, "lstrip": false, "rstrip": false, "normalized": false, "special": true}, {"id": 128070, "content": "<|reserved_special_token_62|>", "single_word": false, "lstrip": false, "rstrip": false, "normalized": false, "special": true}, {"id": 128071, "content": "<|reserved_special_token_63|>", "single_word": false, "lstrip": false, "rstrip": false, "normalized": false, "special": true}, {"id": 128072, "content": "<|reserved_special_token_64|>", "single_word": false, "lstrip": false, "rstrip": false, "normalized": false, "special": true}, {"id": 128073, "content": "<|reserved_special_token_65|>", "single_word": false, "lstrip": false, "rstrip": false, "normalized": false, "special": true}, {"id": 128074, "content": "<|reserved_special_token_66|>", "single_word": false, "lstrip": false, "rstrip": false, "normalized": false, "special": true}, {"id": 128075, "content": "<|reserved_special_token_67|>", "single_word": false, "lstrip": false, "rstrip": false, "normalized": false, "special": true}, {"id": 128076, "content": "<|reserved_special_token_68|>", "single_word": false, "lstrip": false, "rstrip": false, "normalized": false, "special": true}, {"id": 128077, "content": "<|reserved_special_token_69|>", "single_word": false, "lstrip": false, "rstrip": false, "normalized": false, "special": true}, {"id": 128078, "content": "<|reserved_special_token_70|>", "single_word": false, "lstrip": false, "rstrip": false, "normalized": false, "special": true}, {"id": 128079, "content": "<|reserved_special_token_71|>", "single_word": false, "lstrip": false, "rstrip": false, "normalized": false, "special": true}, {"id": 128080, "content": "<|reserved_special_token_72|>", "single_word": false, "lstrip": false, "rstrip": false, "normalized": false, "special": true}, {"id": 128081, "content": "<|reserved_special_token_73|>", "single_word": false, "lstrip": false, "rstrip": false, "normalized": false, "special": true}, {"id": 128082, "content": "<|reserved_special_token_74|>", "single_word": false, "lstrip": false, "rstrip": false, "normalized": false, "special": true}, {"id": 128083, "content": "<|reserved_special_token_75|>", "single_word": false, "lstrip": false, "rstrip": false, "normalized": false, "special": true}, {"id": 128084, "content": "<|reserved_special_token_76|>", "single_word": false, "lstrip": false, "rstrip": false, "normalized": false, "special": true}, {"id": 128085, "content": "<|reserved_special_token_77|>", "single_word": false, "lstrip": false, "rstrip": false, "normalized": false, "special": true}, {"id": 128086, "content": "<|reserved_special_token_78|>", "single_word": false, "lstrip": false, "rstrip": false, "normalized": false, "special": true}, {"id": 128087, "content": "<|reserved_special_token_79|>", "single_word": false, "lstrip": false, "rstrip": false, "normalized": false, "special": true}, {"id": 128088, "content": "<|reserved_special_token_80|>", "single_word": false, "lstrip": false, "rstrip": false, "normalized": false, "special": true}, {"id": 128089, "content": "<|reserved_special_token_81|>", "single_word": false, "lstrip": false, "rstrip": false, "normalized": false, "special": true}, {"id": 128090, "content": "<|reserved_special_token_82|>", "single_word": false, "lstrip": false, "rstrip": false, "normalized": false, "special": true}, {"id": 128091, "content": "<|reserved_special_token_83|>", "single_word": false, "lstrip": false, "rstrip": false, "normalized": false, "special": true}, {"id": 128092, "content": "<|reserved_special_token_84|>", "single_word": false, "lstrip": false, "rstrip": false, "normalized": false, "special": true}, {"id": 128093, "content": "<|reserved_special_token_85|>", "single_word": false, "lstrip": false, "rstrip": false, "normalized": false, "special": true}, {"id": 128094, "content": "<|reserved_special_token_86|>", "single_word": false, "lstrip": false, "rstrip": false, "normalized": false, "special": true}, {"id": 128095, "content": "<|reserved_special_token_87|>", "single_word": false, "lstrip": false, "rstrip": false, "normalized": false, "special": true}, {"id": 128096, "content": "<|reserved_special_token_88|>", "single_word": false, "lstrip": false, "rstrip": false, "normalized": false, "special": true}, {"id": 128097, "content": "<|reserved_special_token_89|>", "single_word": false, "lstrip": false, "rstrip": false, "normalized": false, "special": true}, {"id": 128098, "content": "<|reserved_special_token_90|>", "single_word": false, "lstrip": false, "rstrip": false, "normalized": false, "special": true}, {"id": 128099, "content": "<|reserved_special_token_91|>", "single_word": false, "lstrip": false, "rstrip": false, "normalized": false, "special": true}, {"id": 128100, "content": "<|reserved_special_token_92|>", "single_word": false, "lstrip": false, "rstrip": false, "normalized": false, "special": true}, {"id": 128101, "content": "<|reserved_special_token_93|>", "single_word": false, "lstrip": false, "rstrip": false, "normalized": false, "special": true}, {"id": 128102, "content": "<|reserved_special_token_94|>", "single_word": false, "lstrip": false, "rstrip": false, "normalized": false, "special": true}, {"id": 128103, "content": "<|reserved_special_token_95|>", "single_word": false, "lstrip": false, "rstrip": false, "normalized": false, "special": true}, {"id": 128104, "content": "<|reserved_special_token_96|>", "single_word": false, "lstrip": false, "rstrip": false, "normalized": false, "special": true}, {"id": 128105, "content": "<|reserved_special_token_97|>", "single_word": false, "lstrip": false, "rstrip": false, "normalized": false, "special": true}, {"id": 128106, "content": "<|reserved_special_token_98|>", "single_word": false, "lstrip": false, "rstrip": false, "normalized": false, "special": true}, {"id": 128107, "content": "<|reserved_special_token_99|>", "single_word": false, "lstrip": false, "rstrip": false, "normalized": false, "special": true}, {"id": 128108, "content": "<|reserved_special_token_100|>", "single_word": false, "lstrip": false, "rstrip": false, "normalized": false, "special": true}, {"id": 128109, "content": "<|reserved_special_token_101|>", "single_word": false, "lstrip": false, "rstrip": false, "normalized": false, "special": true}, {"id": 128110, "content": "<|reserved_special_token_102|>", "single_word": false, "lstrip": false, "rstrip": false, "normalized": false, "special": true}, {"id": 128111, "content": "<|reserved_special_token_103|>", "single_word": false, "lstrip": false, "rstrip": false, "normalized": false, "special": true}, {"id": 128112, "content": "<|reserved_special_token_104|>", "single_word": false, "lstrip": false, "rstrip": false, "normalized": false, "special": true}, {"id": 128113, "content": "<|reserved_special_token_105|>", "single_word": false, "lstrip": false, "rstrip": false, "normalized": false, "special": true}, {"id": 128114, "content": "<|reserved_special_token_106|>", "single_word": false, "lstrip": false, "rstrip": false, "normalized": false, "special": true}, {"id": 128115, "content": "<|reserved_special_token_107|>", "single_word": false, "lstrip": false, "rstrip": false, "normalized": false, "special": true}, {"id": 128116, "content": "<|reserved_special_token_108|>", "single_word": false, "lstrip": false, "rstrip": false, "normalized": false, "special": true}, {"id": 128117, "content": "<|reserved_special_token_109|>", "single_word": false, "lstrip": false, "rstrip": false, "normalized": false, "special": true}, {"id": 128118, "content": "<|reserved_special_token_110|>", "single_word": false, "lstrip": false, "rstrip": false, "normalized": false, "special": true}, {"id": 128119, "content": "<|reserved_special_token_111|>", "single_word": false, "lstrip": false, "rstrip": false, "normalized": false, "special": true}, {"id": 128120, "content": "<|reserved_special_token_112|>", "single_word": false, "lstrip": false, "rstrip": false, "normalized": false, "special": true}, {"id": 128121, "content": "<|reserved_special_token_113|>", "single_word": false, "lstrip": false, "rstrip": false, "normalized": false, "special": true}, {"id": 128122, "content": "<|reserved_special_token_114|>", "single_word": false, "lstrip": false, "rstrip": false, "normalized": false, "special": true}, {"id": 128123, "content": "<|reserved_special_token_115|>", "single_word": false, "lstrip": false, "rstrip": false, "normalized": false, "special": true}, {"id": 128124, "content": "<|reserved_special_token_116|>", "single_word": false, "lstrip": false, "rstrip": false, "normalized": false, "special": true}, {"id": 128125, "content": "<|reserved_special_token_117|>", "single_word": false, "lstrip": false, "rstrip": false, "normalized": false, "special": true}, {"id": 128126, "content": "<|reserved_special_token_118|>", "single_word": false, "lstrip": false, "rstrip": false, "normalized": false, "special": true}, {"id": 128127, "content": "<|reserved_special_token_119|>", "single_word": false, "lstrip": false, "rstrip": false, "normalized": false, "special": true}, {"id": 128128, "content": "<|reserved_special_token_120|>", "single_word": false, "lstrip": false, "rstrip": false, "normalized": false, "special": true}, {"id": 128129, "content": "<|reserved_special_token_121|>", "single_word": false, "lstrip": false, "rstrip": false, "normalized": false, "special": true}, {"id": 128130, "content": "<|reserved_special_token_122|>", "single_word": false, "lstrip": false, "rstrip": false, "normalized": false, "special": true}, {"id": 128131, "content": "<|reserved_special_token_123|>", "single_word": false, "lstrip": false, "rstrip": false, "normalized": false, "special": true}, {"id": 128132, "content": "<|reserved_special_token_124|>", "single_word": false, "lstrip": false, "rstrip": false, "normalized": false, "special": true}, {"id": 128133, "content": "<|reserved_special_token_125|>", "single_word": false, "lstrip": false, "rstrip": false, "normalized": false, "special": true}, {"id": 128134, "content": "<|reserved_special_token_126|>", "single_word": false, "lstrip": false, "rstrip": false, "normalized": false, "special": true}, {"id": 128135, "content": "<|reserved_special_token_127|>", "single_word": false, "lstrip": false, "rstrip": false, "normalized": false, "special": true}, {"id": 128136, "content": "<|reserved_special_token_128|>", "single_word": false, "lstrip": false, "rstrip": false, "normalized": false, "special": true}, {"id": 128137, "content": "<|reserved_special_token_129|>", "single_word": false, "lstrip": false, "rstrip": false, "normalized": false, "special": true}, {"id": 128138, "content": "<|reserved_special_token_130|>", "single_word": false, "lstrip": false, "rstrip": false, "normalized": false, "special": true}, {"id": 128139, "content": "<|reserved_special_token_131|>", "single_word": false, "lstrip": false, "rstrip": false, "normalized": false, "special": true}, {"id": 128140, "content": "<|reserved_special_token_132|>", "single_word": false, "lstrip": false, "rstrip": false, "normalized": false, "special": true}, {"id": 128141, "content": "<|reserved_special_token_133|>", "single_word": false, "lstrip": false, "rstrip": false, "normalized": false, "special": true}, {"id": 128142, "content": "<|reserved_special_token_134|>", "single_word": false, "lstrip": false, "rstrip": false, "normalized": false, "special": true}, {"id": 128143, "content": "<|reserved_special_token_135|>", "single_word": false, "lstrip": false, "rstrip": false, "normalized": false, "special": true}, {"id": 128144, "content": "<|reserved_special_token_136|>", "single_word": false, "lstrip": false, "rstrip": false, "normalized": false, "special": true}, {"id": 128145, "content": "<|reserved_special_token_137|>", "single_word": false, "lstrip": false, "rstrip": false, "normalized": false, "special": true}, {"id": 128146, "content": "<|reserved_special_token_138|>", "single_word": false, "lstrip": false, "rstrip": false, "normalized": false, "special": true}, {"id": 128147, "content": "<|reserved_special_token_139|>", "single_word": false, "lstrip": false, "rstrip": false, "normalized": false, "special": true}, {"id": 128148, "content": "<|reserved_special_token_140|>", "single_word": false, "lstrip": false, "rstrip": false, "normalized": false, "special": true}, {"id": 128149, "content": "<|reserved_special_token_141|>", "single_word": false, "lstrip": false, "rstrip": false, "normalized": false, "special": true}, {"id": 128150, "content": "<|reserved_special_token_142|>", "single_word": false, "lstrip": false, "rstrip": false, "normalized": false, "special": true}, {"id": 128151, "content": "<|reserved_special_token_143|>", "single_word": false, "lstrip": false, "rstrip": false, "normalized": false, "special": true}, {"id": 128152, "content": "<|reserved_special_token_144|>", "single_word": false, "lstrip": false, "rstrip": false, "normalized": false, "special": true}, {"id": 128153, "content": "<|reserved_special_token_145|>", "single_word": false, "lstrip": false, "rstrip": false, "normalized": false, "special": true}, {"id": 128154, "content": "<|reserved_special_token_146|>", "single_word": false, "lstrip": false, "rstrip": false, "normalized": false, "special": true}, {"id": 128155, "content": "<|reserved_special_token_147|>", "single_word": false, "lstrip": false, "rstrip": false, "normalized": false, "special": true}, {"id": 128156, "content": "<|reserved_special_token_148|>", "single_word": false, "lstrip": false, "rstrip": false, "normalized": false, "special": true}, {"id": 128157, "content": "<|reserved_special_token_149|>", "single_word": false, "lstrip": false, "rstrip": false, "normalized": false, "special": true}, {"id": 128158, "content": "<|reserved_special_token_150|>", "single_word": false, "lstrip": false, "rstrip": false, "normalized": false, "special": true}, {"id": 128159, "content": "<|reserved_special_token_151|>", "single_word": false, "lstrip": false, "rstrip": false, "normalized": false, "special": true}, {"id": 128160, "content": "<|reserved_special_token_152|>", "single_word": false, "lstrip": false, "rstrip": false, "normalized": false, "special": true}, {"id": 128161, "content": "<|reserved_special_token_153|>", "single_word": false, "lstrip": false, "rstrip": false, "normalized": false, "special": true}, {"id": 128162, "content": "<|reserved_special_token_154|>", "single_word": false, "lstrip": false, "rstrip": false, "normalized": false, "special": true}, {"id": 128163, "content": "<|reserved_special_token_155|>", "single_word": false, "lstrip": false, "rstrip": false, "normalized": false, "special": true}, {"id": 128164, "content": "<|reserved_special_token_156|>", "single_word": false, "lstrip": false, "rstrip": false, "normalized": false, "special": true}, {"id": 128165, "content": "<|reserved_special_token_157|>", "single_word": false, "lstrip": false, "rstrip": false, "normalized": false, "special": true}, {"id": 128166, "content": "<|reserved_special_token_158|>", "single_word": false, "lstrip": false, "rstrip": false, "normalized": false, "special": true}, {"id": 128167, "content": "<|reserved_special_token_159|>", "single_word": false, "lstrip": false, "rstrip": false, "normalized": false, "special": true}, {"id": 128168, "content": "<|reserved_special_token_160|>", "single_word": false, "lstrip": false, "rstrip": false, "normalized": false, "special": true}, {"id": 128169, "content": "<|reserved_special_token_161|>", "single_word": false, "lstrip": false, "rstrip": false, "normalized": false, "special": true}, {"id": 128170, "content": "<|reserved_special_token_162|>", "single_word": false, "lstrip": false, "rstrip": false, "normalized": false, "special": true}, {"id": 128171, "content": "<|reserved_special_token_163|>", "single_word": false, "lstrip": false, "rstrip": false, "normalized": false, "special": true}, {"id": 128172, "content": "<|reserved_special_token_164|>", "single_word": false, "lstrip": false, "rstrip": false, "normalized": false, "special": true}, {"id": 128173, "content": "<|reserved_special_token_165|>", "single_word": false, "lstrip": false, "rstrip": false, "normalized": false, "special": true}, {"id": 128174, "content": "<|reserved_special_token_166|>", "single_word": false, "lstrip": false, "rstrip": false, "normalized": false, "special": true}, {"id": 128175, "content": "<|reserved_special_token_167|>", "single_word": false, "lstrip": false, "rstrip": false, "normalized": false, "special": true}, {"id": 128176, "content": "<|reserved_special_token_168|>", "single_word": false, "lstrip": false, "rstrip": false, "normalized": false, "special": true}, {"id": 128177, "content": "<|reserved_special_token_169|>", "single_word": false, "lstrip": false, "rstrip": false, "normalized": false, "special": true}, {"id": 128178, "content": "<|reserved_special_token_170|>", "single_word": false, "lstrip": false, "rstrip": false, "normalized": false, "special": true}, {"id": 128179, "content": "<|reserved_special_token_171|>", "single_word": false, "lstrip": false, "rstrip": false, "normalized": false, "special": true}, {"id": 128180, "content": "<|reserved_special_token_172|>", "single_word": false, "lstrip": false, "rstrip": false, "normalized": false, "special": true}, {"id": 128181, "content": "<|reserved_special_token_173|>", "single_word": false, "lstrip": false, "rstrip": false, "normalized": false, "special": true}, {"id": 128182, "content": "<|reserved_special_token_174|>", "single_word": false, "lstrip": false, "rstrip": false, "normalized": false, "special": true}, {"id": 128183, "content": "<|reserved_special_token_175|>", "single_word": false, "lstrip": false, "rstrip": false, "normalized": false, "special": true}, {"id": 128184, "content": "<|reserved_special_token_176|>", "single_word": false, "lstrip": false, "rstrip": false, "normalized": false, "special": true}, {"id": 128185, "content": "<|reserved_special_token_177|>", "single_word": false, "lstrip": false, "rstrip": false, "normalized": false, "special": true}, {"id": 128186, "content": "<|reserved_special_token_178|>", "single_word": false, "lstrip": false, "rstrip": false, "normalized": false, "special": true}, {"id": 128187, "content": "<|reserved_special_token_179|>", "single_word": false, "lstrip": false, "rstrip": false, "normalized": false, "special": true}, {"id": 128188, "content": "<|reserved_special_token_180|>", "single_word": false, "lstrip": false, "rstrip": false, "normalized": false, "special": true}, {"id": 128189, "content": "<|reserved_special_token_181|>", "single_word": false, "lstrip": false, "rstrip": false, "normalized": false, "special": true}, {"id": 128190, "content": "<|reserved_special_token_182|>", "single_word": false, "lstrip": false, "rstrip": false, "normalized": false, "special": true}, {"id": 128191, "content": "<|reserved_special_token_183|>", "single_word": false, "lstrip": false, "rstrip": false, "normalized": false, "special": true}, {"id": 128192, "content": "<|reserved_special_token_184|>", "single_word": false, "lstrip": false, "rstrip": false, "normalized": false, "special": true}, {"id": 128193, "content": "<|reserved_special_token_185|>", "single_word": false, "lstrip": false, "rstrip": false, "normalized": false, "special": true}, {"id": 128194, "content": "<|reserved_special_token_186|>", "single_word": false, "lstrip": false, "rstrip": false, "normalized": false, "special": true}, {"id": 128195, "content": "<|reserved_special_token_187|>", "single_word": false, "lstrip": false, "rstrip": false, "normalized": false, "special": true}, {"id": 128196, "content": "<|reserved_special_token_188|>", "single_word": false, "lstrip": false, "rstrip": false, "normalized": false, "special": true}, {"id": 128197, "content": "<|reserved_special_token_189|>", "single_word": false, "lstrip": false, "rstrip": false, "normalized": false, "special": true}, {"id": 128198, "content": "<|reserved_special_token_190|>", "single_word": false, "lstrip": false, "rstrip": false, "normalized": false, "special": true}, {"id": 128199, "content": "<|reserved_special_token_191|>", "single_word": false, "lstrip": false, "rstrip": false, "normalized": false, "special": true}, {"id": 128200, "content": "<|reserved_special_token_192|>", "single_word": false, "lstrip": false, "rstrip": false, "normalized": false, "special": true}, {"id": 128201, "content": "<|reserved_special_token_193|>", "single_word": false, "lstrip": false, "rstrip": false, "normalized": false, "special": true}, {"id": 128202, "content": "<|reserved_special_token_194|>", "single_word": false, "lstrip": false, "rstrip": false, "normalized": false, "special": true}, {"id": 128203, "content": "<|reserved_special_token_195|>", "single_word": false, "lstrip": false, "rstrip": false, "normalized": false, "special": true}, {"id": 128204, "content": "<|reserved_special_token_196|>", "single_word": false, "lstrip": false, "rstrip": false, "normalized": false, "special": true}, {"id": 128205, "content": "<|reserved_special_token_197|>", "single_word": false, "lstrip": false, "rstrip": false, "normalized": false, "special": true}, {"id": 128206, "content": "<|reserved_special_token_198|>", "single_word": false, "lstrip": false, "rstrip": false, "normalized": false, "special": true}, {"id": 128207, "content": "<|reserved_special_token_199|>", "single_word": false, "lstrip": false, "rstrip": false, "normalized": false, "special": true}, {"id": 128208, "content": "<|reserved_special_token_200|>", "single_word": false, "lstrip": false, "rstrip": false, "normalized": false, "special": true}, {"id": 128209, "content": "<|reserved_special_token_201|>", "single_word": false, "lstrip": false, "rstrip": false, "normalized": false, "special": true}, {"id": 128210, "content": "<|reserved_special_token_202|>", "single_word": false, "lstrip": false, "rstrip": false, "normalized": false, "special": true}, {"id": 128211, "content": "<|reserved_special_token_203|>", "single_word": false, "lstrip": false, "rstrip": false, "normalized": false, "special": true}, {"id": 128212, "content": "<|reserved_special_token_204|>", "single_word": false, "lstrip": false, "rstrip": false, "normalized": false, "special": true}, {"id": 128213, "content": "<|reserved_special_token_205|>", "single_word": false, "lstrip": false, "rstrip": false, "normalized": false, "special": true}, {"id": 128214, "content": "<|reserved_special_token_206|>", "single_word": false, "lstrip": false, "rstrip": false, "normalized": false, "special": true}, {"id": 128215, "content": "<|reserved_special_token_207|>", "single_word": false, "lstrip": false, "rstrip": false, "normalized": false, "special": true}, {"id": 128216, "content": "<|reserved_special_token_208|>", "single_word": false, "lstrip": false, "rstrip": false, "normalized": false, "special": true}, {"id": 128217, "content": "<|reserved_special_token_209|>", "single_word": false, "lstrip": false, "rstrip": false, "normalized": false, "special": true}, {"id": 128218, "content": "<|reserved_special_token_210|>", "single_word": false, "lstrip": false, "rstrip": false, "normalized": false, "special": true}, {"id": 128219, "content": "<|reserved_special_token_211|>", "single_word": false, "lstrip": false, "rstrip": false, "normalized": false, "special": true}, {"id": 128220, "content": "<|reserved_special_token_212|>", "single_word": false, "lstrip": false, "rstrip": false, "normalized": false, "special": true}, {"id": 128221, "content": "<|reserved_special_token_213|>", "single_word": false, "lstrip": false, "rstrip": false, "normalized": false, "special": true}, {"id": 128222, "content": "<|reserved_special_token_214|>", "single_word": false, "lstrip": false, "rstrip": false, "normalized": false, "special": true}, {"id": 128223, "content": "<|reserved_special_token_215|>", "single_word": false, "lstrip": false, "rstrip": false, "normalized": false, "special": true}, {"id": 128224, "content": "<|reserved_special_token_216|>", "single_word": false, "lstrip": false, "rstrip": false, "normalized": false, "special": true}, {"id": 128225, "content": "<|reserved_special_token_217|>", "single_word": false, "lstrip": false, "rstrip": false, "normalized": false, "special": true}, {"id": 128226, "content": "<|reserved_special_token_218|>", "single_word": false, "lstrip": false, "rstrip": false, "normalized": false, "special": true}, {"id": 128227, "content": "<|reserved_special_token_219|>", "single_word": false, "lstrip": false, "rstrip": false, "normalized": false, "special": true}, {"id": 128228, "content": "<|reserved_special_token_220|>", "single_word": false, "lstrip": false, "rstrip": false, "normalized": false, "special": true}, {"id": 128229, "content": "<|reserved_special_token_221|>", "single_word": false, "lstrip": false, "rstrip": false, "normalized": false, "special": true}, {"id": 128230, "content": "<|reserved_special_token_222|>", "single_word": false, "lstrip": false, "rstrip": false, "normalized": false, "special": true}, {"id": 128231, "content": "<|reserved_special_token_223|>", "single_word": false, "lstrip": false, "rstrip": false, "normalized": false, "special": true}, {"id": 128232, "content": "<|reserved_special_token_224|>", "single_word": false, "lstrip": false, "rstrip": false, "normalized": false, "special": true}, {"id": 128233, "content": "<|reserved_special_token_225|>", "single_word": false, "lstrip": false, "rstrip": false, "normalized": false, "special": true}, {"id": 128234, "content": "<|reserved_special_token_226|>", "single_word": false, "lstrip": false, "rstrip": false, "normalized": false, "special": true}, {"id": 128235, "content": "<|reserved_special_token_227|>", "single_word": false, "lstrip": false, "rstrip": false, "normalized": false, "special": true}, {"id": 128236, "content": "<|reserved_special_token_228|>", "single_word": false, "lstrip": false, "rstrip": false, "normalized": false, "special": true}, {"id": 128237, "content": "<|reserved_special_token_229|>", "single_word": false, "lstrip": false, "rstrip": false, "normalized": false, "special": true}, {"id": 128238, "content": "<|reserved_special_token_230|>", "single_word": false, "lstrip": false, "rstrip": false, "normalized": false, "special": true}, {"id": 128239, "content": "<|reserved_special_token_231|>", "single_word": false, "lstrip": false, "rstrip": false, "normalized": false, "special": true}, {"id": 128240, "content": "<|reserved_special_token_232|>", "single_word": false, "lstrip": false, "rstrip": false, "normalized": false, "special": true}, {"id": 128241, "content": "<|reserved_special_token_233|>", "single_word": false, "lstrip": false, "rstrip": false, "normalized": false, "special": true}, {"id": 128242, "content": "<|reserved_special_token_234|>", "single_word": false, "lstrip": false, "rstrip": false, "normalized": false, "special": true}, {"id": 128243, "content": "<|reserved_special_token_235|>", "single_word": false, "lstrip": false, "rstrip": false, "normalized": false, "special": true}, {"id": 128244, "content": "<|reserved_special_token_236|>", "single_word": false, "lstrip": false, "rstrip": false, "normalized": false, "special": true}, {"id": 128245, "content": "<|reserved_special_token_237|>", "single_word": false, "lstrip": false, "rstrip": false, "normalized": false, "special": true}, {"id": 128246, "content": "<|reserved_special_token_238|>", "single_word": false, "lstrip": false, "rstrip": false, "normalized": false, "special": true}, {"id": 128247, "content": "<|reserved_special_token_239|>", "single_word": false, "lstrip": false, "rstrip": false, "normalized": false, "special": true}, {"id": 128248, "content": "<|reserved_special_token_240|>", "single_word": false, "lstrip": false, "rstrip": false, "normalized": false, "special": true}, {"id": 128249, "content": "<|reserved_special_token_241|>", "single_word": false, "lstrip": false, "rstrip": false, "normalized": false, "special": true}, {"id": 128250, "content": "<|reserved_special_token_242|>", "single_word": false, "lstrip": false, "rstrip": false, "normalized": false, "special": true}, {"id": 128251, "content": "<|reserved_special_token_243|>", "single_word": false, "lstrip": false, "rstrip": false, "normalized": false, "special": true}, {"id": 128252, "content": "<|reserved_special_token_244|>", "single_word": false, "lstrip": false, "rstrip": false, "normalized": false, "special": true}, {"id": 128253, "content": "<|reserved_special_token_245|>", "single_word": false, "lstrip": false, "rstrip": false, "normalized": false, "special": true}, {"id": 128254, "content": "<|reserved_special_token_246|>", "single_word": false, "lstrip": false, "rstrip": false, "normalized": false, "special": true}, {"id": 128255, "content": "<|reserved_special_token_247|>", "single_word": false, "lstrip": false, "rstrip": false, "normalized": false, "special": true}], "normalizer": null, "pre_tokenizer": {"type": "Sequence", "pretokenizers": [{"type": "Split", "pattern": {"Regex": "(?i:'s|'t|'re|'ve|'m|'ll|'d)|[^\\r\\n\\p{L}\\p{N}]?\\p{L}+|\\p{N}{1,3}| ?[^\\s\\p{L}\\p{N}]+[\\r\\n]*|\\s*[\\r\\n]+|\\s+(?!\\S)|\\s+"}, "behavior": "Isolated", "invert": false}, {"type": "ByteLevel", "add_prefix_space": false, "trim_offsets": true, "use_regex": false}]}, "post_processor": {"type": "Sequence", "processors": [{"type": "ByteLevel", "add_prefix_space": true, "trim_offsets": false, "use_regex": true}, {"type": "TemplateProcessing", "single": [{"SpecialToken": {"id": "<|begin_of_text|>", "type_id": 0}}, {"Sequence": {"id": "A", "type_id": 0}}], "pair": [{"SpecialToken": {"id": "<|begin_of_text|>", "type_id": 0}}, {"Sequence": {"id": "A", "type_id": 0}}, {"SpecialToken": {"id": "<|begin_of_text|>", "type_id": 1}}, {"Sequence": {"id": "B", "type_id": 1}}], "special_tokens": {"<|begin_of_text|>": {"id": "<|begin_of_text|>", "ids": [128000], "tokens": ["<|begin_of_text|>"]}}}]}, "decoder": {"type": "ByteLevel", "add_prefix_space": true, "trim_offsets": true, "use_regex": true}, "model": {"type": "BPE", "dropout": null, "unk_token": null, "continuing_subword_prefix": null, "end_of_word_suffix": null, "fuse_unk": false, "byte_fallback": false, "ignore_merges": true, "vocab": {"!": 0, "\"": 1, "#": 2, "$": 3, "%": 4, "&": 5, "'": 6, "(": 7, ")": 8, "*": 9, "+": 10, ",": 11, "-": 12, ".": 13, "/": 14, "0": 15, "1": 16, "2": 17, "3": 18, "4": 19, "5": 20, "6": 21, "7": 22, "8": 23, "9": 24, ":": 25, ";": 26, "<": 27, "=": 28, ">": 29, "?": 30, "@": 31, "A": 32, "B": 33, "C": 34, "D": 35, "E": 36, "F": 37, "G": 38, "H": 39, "I": 40, "J": 41, "K": 42, "L": 43, "M": 44, "N": 45, "O": 46, "P": 47, "Q": 48, "R": 49, "S": 50, "T": 51, "U": 52, "V": 53, "W": 54, "X": 55, "Y": 56, "Z": 57, "[": 58, "\\": 59, "]": 60, "^": 61, "_": 62, "`": 63, "a": 64, "b": 65, "c": 66, "d": 67, "e": 68, "f": 69, "g": 70, "h": 71, "i": 72, "j": 73, "k": 74, "l": 75, "m": 76, "n": 77, "o": 78, "p": 79, "q": 80, "r": 81, "s": 82, "t": 83, "u": 84, "v": 85, "w": 86, "x": 87, "y": 88, "z": 89, "{": 90, "|": 91, "}": 92, "~": 93, "\u00a1": 94, "\u00a2": 95, "\u00a3": 96, "\u00a4": 97, "\u00a5": 98, "\u00a6": 99, "\u00a7": 100, "\u00a8": 101, "\u00a9": 102, "\u00aa": 103, "\u00ab": 104, "\u00ac": 105, "\u00ae": 106, "\u00af": 107, "\u00b0": 108, "\u00b1": 109, "\u00b2": 110, "\u00b3": 111, "\u00b4": 112, "\u00b5": 113, "\u00b6": 114, "\u00b7": 115, "\u00b8": 116, "\u00b9": 117, "\u00ba": 118, "\u00bb": 119, "\u00bc": 120, "\u00bd": 121, "\u00be": 122, "\u00bf": 123, "\u00c0": 124, "\u00c1": 125, "\u00c2": 126, "\u00c3": 127, "\u00c4": 128, "\u00c5": 129, "\u00c6": 130, "\u00c7": 131, "\u00c8": 132, "\u00c9": 133, "\u00ca": 134, "\u00cb": 135, "\u00cc": 136, "\u00cd": 137, "\u00ce": 138, "\u00cf": 139, "\u00d0": 140, "\u00d1": 141, "\u00d2": 142, "\u00d3": 143, "\u00d4": 144, "\u00d5": 145, "\u00d6": 146, "\u00d7": 147, "\u00d8": 148, "\u00d9": 149, "\u00da": 150, "\u00db": 151, "\u00dc": 152, "\u00dd": 153, "\u00de": 154, "\u00df": 155, "\u00e0": 156, "\u00e1": 157, "\u00e2": 158, "\u00e3": 159, "\u00e4": 160, "\u00e5": 161, "\u00e6": 162, "\u00e7": 163, "\u00e8": 164, "\u00e9": 165, "\u00ea": 166, "\u00eb": 167, "\u00ec": 168, "\u00ed": 169, "\u00ee": 170, "\u00ef": 171, "\u00f0": 172, "\u00f1": 173, "\u00f2": 174, "\u00f3": 175, "\u00f4": 176, "\u00f5": 177, "\u00f6": 178, "\u00f7": 179, "\u00f8": 180, "\u00f9": 181, "\u00fa": 182, "\u00fb": 183, "\u00fc": 184, "\u00fd": 185, "\u00fe": 186, "\u00ff": 187, "\u0100": 188, "\u0101": 189, "\u0102": 190, "\u0103": 191, "\u0104": 192, "\u0105": 193, "\u0106": 194, "\u0107": 195, "\u0108": 196, "\u0109": 197, "\u010a": 198, "\u010b": 199, "\u010c": 200, "\u010d": 201, "\u010e": 202, "\u010f": 203, "\u0110": 204, "\u0111": 205, "\u0112": 206, "\u0113": 207, "\u0114": 208, "\u0115": 209, "\u0116": 210, "\u0117": 211, "\u0118": 212, "\u0119": 213, "\u011a": 214, "\u011b": 215, "\u011c": 216, "\u011d": 217, "\u011e": 218, "\u011f": 219, "\u0120": 220, "\u0121": 221, "\u0122": 222, "\u0123": 223, "\u0124": 224, "\u0125": 225, "\u0126": 226, "\u0127": 227, "\u0128": 228, "\u0129": 229, "\u012a": 230, "\u012b": 231, "\u012c": 232, "\u012d": 233, "\u012e": 234, "\u012f": 235, "\u0130": 236, "\u0131": 237, "\u0132": 238, "\u0133": 239, "\u0134": 240, "\u0135": 241, "\u0136": 242, "\u0137": 243, "\u0138": 244, "\u0139": 245, "\u013a": 246, "\u013b": 247, "\u013c": 248, "\u013d": 249, "\u013e": 250, "\u013f": 251, "\u0140": 252, "\u0141": 253, "\u0142": 254, "\u0143": 255, "\u0120\u0120": 256, "\u0120\u0120\u0120\u0120": 257, "in": 258, "\u0120t": 259, "\u0120\u0120\u0120\u0120\u0120\u0120\u0120\u0120": 260, "er": 261, "\u0120\u0120\u0120": 262, "on": 263, "\u0120a": 264, "re": 265, "at": 266, "st": 267, "en": 268, "or": 269, "\u0120th": 270, "\u010a\u010a": 271, "\u0120c": 272, "le": 273, "\u0120s": 274, "it": 275, "an": 276, "ar": 277, "al": 278, "\u0120the": 279, ";\u010a": 280, "\u0120p": 281, "\u0120f": 282, "ou": 283, "\u0120=": 284, "is": 285, "\u0120\u0120\u0120\u0120\u0120\u0120\u0120": 286, "ing": 287, "es": 288, "\u0120w": 289, "ion": 290, "ed": 291, "ic": 292, "\u0120b": 293, "\u0120d": 294, "et": 295, "\u0120m": 296, "\u0120o": 297, "\u0109\u0109": 298, "ro": 299, "as": 300, "el": 301, "ct": 302, "nd": 303, "\u0120in": 304, "\u0120h": 305, "ent": 306, "id": 307, "\u0120n": 308, "am": 309, "\u0120\u0120\u0120\u0120\u0120\u0120\u0120\u0120\u0120\u0120\u0120": 310, "\u0120to": 311, "\u0120re": 312, "--": 313, "\u0120{": 314, "\u0120of": 315, "om": 316, ");\u010a": 317, "im": 318, "\u010d\u010a": 319, "\u0120(": 320, "il": 321, "//": 322, "\u0120and": 323, "ur": 324, "se": 325, "\u0120l": 326, "ex": 327, "\u0120S": 328, "ad": 329, "\u0120\"": 330, "ch": 331, "ut": 332, "if": 333, "**": 334, "\u0120}": 335, "em": 336, "ol": 337, "\u0120\u0120\u0120\u0120\u0120\u0120\u0120\u0120\u0120\u0120\u0120\u0120\u0120\u0120\u0120\u0120": 338, "th": 339, ")\u010a": 340, "\u0120{\u010a": 341, "\u0120g": 342, "ig": 343, "iv": 344, ",\u010a": 345, "ce": 346, "od": 347, "\u0120v": 348, "ate": 349, "\u0120T": 350, "ag": 351, "ay": 352, "\u0120*": 353, "ot": 354, "us": 355, "\u0120C": 356, "\u0120st": 357, "\u0120I": 358, "un": 359, "ul": 360, "ue": 361, "\u0120A": 362, "ow": 363, "\u0120'": 364, "ew": 365, "\u0120<": 366, "ation": 367, "()": 368, "\u0120for": 369, "ab": 370, "ort": 371, "um": 372, "ame": 373, "\u0120is": 374, "pe": 375, "tr": 376, "ck": 377, "\u00e2\u0122": 378, "\u0120y": 379, "ist": 380, "----": 381, ".\u010a\u010a": 382, "he": 383, "\u0120e": 384, "lo": 385, "\u0120M": 386, "\u0120be": 387, "ers": 388, "\u0120on": 389, "\u0120con": 390, "ap": 391, "ub": 392, "\u0120P": 393, "\u0120\u0120\u0120\u0120\u0120\u0120\u0120\u0120\u0120\u0120\u0120\u0120\u0120\u0120\u0120": 394, "ass": 395, "int": 396, ">\u010a": 397, "ly": 398, "urn": 399, "\u0120$": 400, ";\u010a\u010a": 401, "av": 402, "port": 403, "ir": 404, "->": 405, "nt": 406, "ction": 407, "end": 408, "\u0120de": 409, "00": 410, "ith": 411, "out": 412, "turn": 413, "our": 414, "\u0120\u0120\u0120\u0120\u0120": 415, "lic": 416, "res": 417, "pt": 418, "==": 419, "\u0120this": 420, "\u0120wh": 421, "\u0120if": 422, "\u0120D": 423, "ver": 424, "age": 425, "\u0120B": 426, "ht": 427, "ext": 428, "=\"": 429, "\u0120that": 430, "****": 431, "\u0120R": 432, "\u0120it": 433, "ess": 434, "\u0120F": 435, "\u0120r": 436, "os": 437, "and": 438, "\u0120as": 439, "ect": 440, "ke": 441, "rom": 442, "\u0120//": 443, "con": 444, "\u0120L": 445, "(\"": 446, "qu": 447, "lass": 448, "\u0120with": 449, "iz": 450, "de": 451, "\u0120N": 452, "\u0120al": 453, "op": 454, "up": 455, "get": 456, "\u0120}\u010a": 457, "ile": 458, "\u0120an": 459, "ata": 460, "ore": 461, "ri": 462, "\u0120pro": 463, ";\u010d\u010a": 464, "\u0109\u0109\u0109\u0109": 465, "ter": 466, "ain": 467, "\u0120W": 468, "\u0120E": 469, "\u0120com": 470, "\u0120return": 471, "art": 472, "\u0120H": 473, "ack": 474, "import": 475, "ublic": 476, "\u0120or": 477, "est": 478, "ment": 479, "\u0120G": 480, "able": 481, "\u0120-": 482, "ine": 483, "ill": 484, "ind": 485, "ere": 486, "::": 487, "ity": 488, "\u0120+": 489, "\u0120tr": 490, "elf": 491, "ight": 492, "('": 493, "orm": 494, "ult": 495, "str": 496, "..": 497, "\",": 498, "\u0120you": 499, "ype": 500, "pl": 501, "\u0120new": 502, "\u0120j": 503, "\u0120\u0120\u0120\u0120\u0120\u0120\u0120\u0120\u0120\u0120\u0120\u0120\u0120\u0120\u0120\u0120\u0120\u0120\u0120": 504, "\u0120from": 505, "\u0120ex": 506, "\u0120O": 507, "20": 508, "ld": 509, "\u0120[": 510, "oc": 511, ":\u010a": 512, "\u0120se": 513, "\u0120le": 514, "--------": 515, ".s": 516, "{\u010a": 517, "',": 518, "ant": 519, "\u0120at": 520, "ase": 521, ".c": 522, "\u0120ch": 523, "</": 524, "ave": 525, "ang": 526, "\u0120are": 527, "\u0120int": 528, "\u00e2\u0122\u013b": 529, "_t": 530, "ert": 531, "ial": 532, "act": 533, "}\u010a": 534, "ive": 535, "ode": 536, "ost": 537, "\u0120class": 538, "\u0120not": 539, "og": 540, "ord": 541, "alue": 542, "all": 543, "ff": 544, "();\u010a": 545, "ont": 546, "ime": 547, "are": 548, "\u0120U": 549, "\u0120pr": 550, "\u0120:": 551, "ies": 552, "ize": 553, "ure": 554, "\u0120by": 555, "ire": 556, "\u0120}\u010a\u010a": 557, ".p": 558, "\u0120sh": 559, "ice": 560, "ast": 561, "ption": 562, "tring": 563, "ok": 564, "__": 565, "cl": 566, "##": 567, "\u0120he": 568, "ard": 569, ").": 570, "\u0120@": 571, "iew": 572, "\u0109\u0109\u0109": 573, "\u0120was": 574, "ip": 575, "this": 576, "\u0120u": 577, "\u0120The": 578, "ide": 579, "ace": 580, "ib": 581, "ac": 582, "rou": 583, "\u0120we": 584, "ject": 585, "\u0120public": 586, "ak": 587, "ve": 588, "ath": 589, "oid": 590, "\u0120=>": 591, "ust": 592, "que": 593, "\u0120res": 594, "))": 595, "'s": 596, "\u0120k": 597, "ans": 598, "yst": 599, "unction": 600, "********": 601, "\u0120i": 602, "\u0120us": 603, "pp": 604, "10": 605, "one": 606, "ail": 607, "====": 608, "name": 609, "\u0120str": 610, "\u0120/": 611, "\u0120&": 612, "ach": 613, "div": 614, "ystem": 615, "ell": 616, "\u0120have": 617, "err": 618, "ould": 619, "ull": 620, "pon": 621, "\u0120J": 622, "_p": 623, "\u0120==": 624, "ign": 625, "St": 626, ".\u010a": 627, "\u0120pl": 628, ");\u010a\u010a": 629, "form": 630, "put": 631, "ount": 632, "}\u010a\u010a": 633, "dd": 634, "ite": 635, "\u0120get": 636, "rr": 637, "ome": 638, "\u0120\u00e2\u0122": 639, "aram": 640, "cc": 641, "\u0120*/": 642, "ER": 643, "In": 644, "les": 645, "_s": 646, "ong": 647, "ie": 648, "\u0120can": 649, "\u0120V": 650, "erv": 651, "pr": 652, "\u0120un": 653, "row": 654, "ber": 655, "\u0120do": 656, "ll": 657, "\u0120el": 658, "\u0120self": 659, "ated": 660, "ary": 661, "\u0120.": 662, "']": 663, "ud": 664, "\u0120en": 665, "\u0120Th": 666, "\u0120\u0120\u0120\u0120\u0120\u0120\u0120\u0120\u0120\u0120\u0120\u0120\u0120\u0120\u0120\u0120\u0120\u0120\u0120\u0120\u0120\u0120\u0120": 667, "te": 668, "_c": 669, "uct": 670, "\u0120ab": 671, "ork": 672, ".get": 673, "\u0120#": 674, "aw": 675, "ress": 676, "ob": 677, "Name": 678, "201": 679, "app": 680, "['": 681, "\u0120all": 682, "ory": 683, "ition": 684, "ance": 685, "ear": 686, "\u0120cont": 687, "vent": 688, "ia": 689, "\u0120will": 690, "IN": 691, "\u0120\u0120\u0120\u0120\u0120\u0120\u0120\u0120\u0120": 692, "return": 693, "\u0120</": 694, "data": 695, ")\u010a\u010a": 696, "Re": 697, "ple": 698, "ild": 699, "ther": 700, "\u0120your": 701, "\"\u010a": 702, "($": 703, "\u0120out": 704, "),": 705, "\u0120has": 706, "String": 707, "so": 708, "\u0120up": 709, "ax": 710, "\u0120def": 711, "\u0120bo": 712, "ge": 713, "alse": 714, "ON": 715, "per": 716, "12": 717, "ich": 718, "\u0120but": 719, "\u0120\u010a": 720, "\u0120_": 721, "_m": 722, "add": 723, "quest": 724, "odel": 725, "self": 726, "ery": 727, "ft": 728, "ens": 729, "////": 730, "ake": 731, ".C": 732, "\u0120go": 733, "\u0120function": 734, "\u0120K": 735, "ivate": 736, "\u0120im": 737, "\u0120const": 738, ".t": 739, "\u0120*/\u010a": 740, ");\u010d\u010a": 741, "\u0120void": 742, "\u0120set": 743, "\u0120System": 744, "cri": 745, "()\u010a": 746, "li": 747, "\u0109if": 748, ".m": 749, "ally": 750, "set": 751, "ep": 752, "\u00e2\u0122\u013bs": 753, "bo": 754, "def": 755, "',\u010a": 756, "\u0120me": 757, "\u0120!": 758, "atch": 759, "\">": 760, "\",\u010a": 761, "ec": 762, "\u0120In": 763, "ph": 764, "\u0120|": 765, "_f": 766, "\u0120var": 767, "ence": 768, "Id": 769, "ree": 770, "ink": 771, "lect": 772, "ug": 773, "eth": 774, "\u0120else": 775, "----------------": 776, "19": 777, "cont": 778, "\u0120so": 779, "atic": 780, "\u0120lo": 781, "pro": 782, "ton": 783, "ss": 784, "own": 785, "abel": 786, "oint": 787, "ous": 788, "eld": 789, "ST": 790, "The": 791, "\u0120\u0120\u0120\u0120\u0120\u0120\u0120\u0120\u0120\u0120\u0120\u0120\u0120\u0120\u0120\u0120\u0120\u0120\u0120\u0120\u0120\u0120\u0120\u0120\u0120\u0120\u0120\u0120\u0120\u0120\u0120\u0120": 792, "RE": 793, "\":": 794, "olor": 795, "tp": 796, "eg": 797, "key": 798, "ude": 799, "\u0120St": 800, "ound": 801, "\u0120ar": 802, "\");\u010a": 803, "ener": 804, "ser": 805, "11": 806, "bject": 807, "essage": 808, "fer": 809, "\u0120more": 810, "ations": 811, "ents": 812, "\u0120his": 813, "\u0120they": 814, ".S": 815, "\u0120Y": 816, "use": 817, "ne": 818, "ish": 819, "old": 820, "_d": 821, "io": 822, "ield": 823, "\u0120per": 824, "Cont": 825, "ings": 826, "####": 827, "\u0120data": 828, "\u0120sa": 829, "ef": 830, "fo": 831, "\u0120one": 832, "eng": 833, "\u0120dis": 834, "AT": 835, "\u0120name": 836, "\u0120true": 837, "val": 838, "led": 839, ".f": 840, "\u0120ne": 841, "\u0120end": 842, "32": 843, ".T": 844, "16": 845, "cre": 846, "ark": 847, "log": 848, "Ex": 849, "error": 850, "_id": 851, "urre": 852, "ange": 853, "\u0120null": 854, "rray": 855, "\u0120my": 856, "pan": 857, "ict": 858, "ator": 859, "View": 860, "List": 861, "\u0109return": 862, "\u00e2\u0122\u013f": 863, "\u0120pre": 864, "\u0120x": 865, "clude": 866, "arg": 867, "15": 868, "ov": 869, ".h": 870, "\u0120>": 871, "\u0120their": 872, "')": 873, "irst": 874, "ick": 875, "gh": 876, "LE": 877, "OR": 878, "\u0120private": 879, "tem": 880, "\u010d\u010a\u010d\u010a": 881, "user": 882, "\u0120)": 883, "com": 884, ".A": 885, "\";\u010a": 886, "\u0120id": 887, "read": 888, "\u0120who": 889, "_b": 890, "\">\u010a": 891, "\u0120time": 892, "\u0120man": 893, "ry": 894, "========": 895, "roup": 896, "rop": 897, "public": 898, "vel": 899, "umber": 900, "ble": 901, "\u0120which": 902, "****************": 903, "\u0120any": 904, "\u0120false": 905, "we": 906, "\u0120value": 907, "\u0120li": 908, "\")": 909, "nder": 910, "gr": 911, "\u0120no": 912, "param": 913, "25": 914, "fig": 915, ".com": 916, "\u0120app": 917, "_l": 918, "ions": 919, ".D": 920, "\u0120Ch": 921, "\u0120about": 922, "\u0120add": 923, "\u0120su": 924, "\u0120string": 925, "ID": 926, "\u0120over": 927, "string": 928, ".l": 929, "ource": 930, "000": 931, "_C": 932, "]\u010a": 933, "\u0120qu": 934, "\u0120String": 935, "ca": 936, "SE": 937, "\u0120ro": 938, "sh": 939, "ual": 940, "Type": 941, "son": 942, "new": 943, "ern": 944, "\u0120ag": 945, "AR": 946, "];\u010a": 947, "].": 948, "\u0120?": 949, "ical": 950, "\u0120des": 951, "uth": 952, "ix": 953, "ays": 954, "\u0120type": 955, "'t": 956, "ault": 957, "\u0120inter": 958, "var": 959, ".b": 960, "\u0120part": 961, ".d": 962, "urrent": 963, "IT": 964, "EN": 965, "30": 966, "enc": 967, "(f": 968, "ra": 969, "value": 970, "cho": 971, "18": 972, "utton": 973, "ose": 974, "14": 975, "\u0120!=": 976, "ater": 977, "\u00c3\u00a9": 978, "reate": 979, "oll": 980, "pos": 981, "yle": 982, "ng": 983, "AL": 984, "using": 985, "ames": 986, "\u0120{\u010d\u010a": 987, "ates": 988, "ely": 989, "\u0120work": 990, "\u0120em": 991, "inal": 992, "\u0120sp": 993, "\u0120when": 994, ".set": 995, "\u0120\u0120\u0120\u0120\u0120\u0120": 996, "):\u010a": 997, "to": 998, "quire": 999, "indow": 1000, "lement": 1001, "pect": 1002, "ash": 1003, "[i": 1004, "\u0120use": 1005, ".F": 1006, "pec": 1007, "\u0120ad": 1008, "ove": 1009, "ception": 1010, "ength": 1011, "include": 1012, "ader": 1013, "\u0120\u0120\u0120\u0120\u0120\u0120\u0120\u0120\u0120\u0120\u0120\u0120\u0120\u0120\u0120\u0120\u0120\u0120\u0120\u0120\u0120\u0120\u0120\u0120\u0120\u0120\u0120": 1014, "atus": 1015, "Th": 1016, "itle": 1017, "rit": 1018, "void": 1019, "().": 1020, "(\u010a": 1021, "\u0120off": 1022, "\u0120other": 1023, "\u0120&&": 1024, "';\u010a": 1025, "ms": 1026, "\u0120been": 1027, "\u0120te": 1028, "ml": 1029, "co": 1030, "nc": 1031, "13": 1032, "ervice": 1033, "\u0120%": 1034, "**\u010a": 1035, "ann": 1036, "ade": 1037, "\u010a\u010a\u010a\u010a": 1038, "lock": 1039, "const": 1040, "100": 1041, "ponse": 1042, "\u0120sup": 1043, "++": 1044, "date": 1045, "\u0120acc": 1046, "\u0120had": 1047, "\u0120bu": 1048, "200": 1049, "\u0120Re": 1050, "\u0120were": 1051, "\u0120file": 1052, "\u0120would": 1053, "\u0120\u00e2\u0122\u013e": 1054, "ven": 1055, "iss": 1056, "\u0120our": 1057, "class": 1058, "raw": 1059, "\u0120year": 1060, "Data": 1061, "\u0120val": 1062, "\u0120some": 1063, "fter": 1064, "ys": 1065, "\u0120///": 1066, "round": 1067, "view": 1068, "\u0120pe": 1069, "\u0120there": 1070, "\u0120said": 1071, "du": 1072, "of": 1073, "line": 1074, "/*": 1075, "duct": 1076, "\u0120her": 1077, "\u0120\u0120\u0120\u0120\u0120\u0120\u0120\u0120\u0120\u0120\u0120\u0120\u0120": 1078, "Res": 1079, "\u0120co": 1080, "\u0120comm": 1081, "ise": 1082, "min": 1083, "\u0120\u0120\u0120\u0120\u010a": 1084, "#include": 1085, "ethod": 1086, ".P": 1087, "ute": 1088, "\u0120ass": 1089, "Int": 1090, "ask": 1091, "loc": 1092, "\u0120like": 1093, "ody": 1094, "\u0120let": 1095, "load": 1096, "\u0120am": 1097, "rol": 1098, "\u0120gr": 1099, "yp": 1100, "\u0120also": 1101, "\u0120It": 1102, "url": 1103, "ific": 1104, "ors": 1105, "_P": 1106, "_n": 1107, "igh": 1108, "\u0120than": 1109, "Com": 1110, "AN": 1111, "UL": 1112, "ating": 1113, "17": 1114, "\u0120This": 1115, "ref": 1116, "_S": 1117, "\u0120static": 1118, "roll": 1119, "\u0120just": 1120, "\u0120result": 1121, "ian": 1122, "idth": 1123, "\u0120them": 1124, "));\u010a": 1125, "der": 1126, "reak": 1127, "Con": 1128, "://": 1129, "ule": 1130, "...": 1131, "arch": 1132, "ement": 1133, "\u0120<<": 1134, "50": 1135, "ush": 1136, "ense": 1137, "arr": 1138, "\u0120into": 1139, "cess": 1140, "amp": 1141, "ied": 1142, "ument": 1143, "\u0120\\": 1144, "],": 1145, "wo": 1146, "als": 1147, "\u0120what": 1148, "anc": 1149, "Value": 1150, "='": 1151, "olum": 1152, "\u0120pos": 1153, "ages": 1154, "ayer": 1155, "\u0120sc": 1156, "ues": 1157, "\")\u010a": 1158, "_T": 1159, "\u0120list": 1160, "(s": 1161, "\u0120case": 1162, "Ch": 1163, "\u0109\u0109\u0109\u0109\u0109": 1164, "////////": 1165, "ponent": 1166, "\u0120z": 1167, "\u0120kn": 1168, "let": 1169, "DE": 1170, "red": 1171, "\u0120fe": 1172, "\u0120},\u010a": 1173, "\u0120,": 1174, "(t": 1175, "\u0120first": 1176, "');\u010a": 1177, "word": 1178, "\u0120import": 1179, "\u0120act": 1180, "\u0120char": 1181, "CT": 1182, "\u0120Tr": 1183, "ople": 1184, "={": 1185, "\u0109f": 1186, "24": 1187, "ient": 1188, "cent": 1189, ".j": 1190, "lection": 1191, "))\u010a": 1192, "\u0120only": 1193, "\u0120print": 1194, "mer": 1195, ".W": 1196, "ock": 1197, "\u0120--": 1198, "Text": 1199, "\u0120op": 1200, "ank": 1201, "\u0120its": 1202, "\u0120back": 1203, "[\"": 1204, "\u0120need": 1205, "\u0120cl": 1206, "\u0120sub": 1207, "\u0120la": 1208, "((": 1209, ".\"": 1210, "Object": 1211, "\u0120start": 1212, "file": 1213, "(self": 1214, "ner": 1215, "ey": 1216, "\u0120user": 1217, "\u0120ent": 1218, "\u0120Com": 1219, "its": 1220, "\u0120Con": 1221, "ouble": 1222, "ower": 1223, "item": 1224, "very": 1225, "\u0120We": 1226, "64": 1227, "lick": 1228, "\u0120Q": 1229, "php": 1230, "ttp": 1231, "':": 1232, "ics": 1233, "\u0120under": 1234, "\u0120*\u010a": 1235, ".L": 1236, ");": 1237, "ices": 1238, "\u0120reg": 1239, ")\u010d\u010a": 1240, "\u0109public": 1241, "SS": 1242, "\u0120then": 1243, "reat": 1244, "ious": 1245, ".G": 1246, "ek": 1247, "irect": 1248, "heck": 1249, "cript": 1250, "ning": 1251, "\u0120Un": 1252, "\u0120may": 1253, "\u0120Wh": 1254, "Bo": 1255, "Item": 1256, "struct": 1257, ".st": 1258, "ream": 1259, "ible": 1260, "loat": 1261, "\u0120org": 1262, "und": 1263, "sum": 1264, "_in": 1265, "../": 1266, "_M": 1267, "\u0120how": 1268, "rite": 1269, "'\u010a": 1270, "To": 1271, "40": 1272, "ww": 1273, "\u0120people": 1274, "index": 1275, ".n": 1276, "http": 1277, "(m": 1278, "ector": 1279, "\u0120ind": 1280, "\u0120jav": 1281, "],\u010a": 1282, "\u0120He": 1283, "_st": 1284, "ful": 1285, "ole": 1286, "){\u010a": 1287, "\u0120should": 1288, "opy": 1289, "elp": 1290, "ier": 1291, "_name": 1292, "erson": 1293, "ION": 1294, "ote": 1295, "\u0120test": 1296, "\u0120bet": 1297, "rror": 1298, "ular": 1299, "\u00e3\u0122": 1300, "\u0120\u00d0": 1301, "bs": 1302, "ting": 1303, "\u0120make": 1304, "Tr": 1305, "\u0120after": 1306, "arget": 1307, "RO": 1308, "olumn": 1309, "rc": 1310, "_re": 1311, "define": 1312, "22": 1313, "\u0120right": 1314, "right": 1315, "day": 1316, "\u0120long": 1317, "[]": 1318, "(p": 1319, "td": 1320, "cond": 1321, "\u0120Pro": 1322, "\u0120rem": 1323, "ptions": 1324, "vid": 1325, ".g": 1326, "\u0120ext": 1327, "\u0120__": 1328, "')\u010a": 1329, "pace": 1330, "mp": 1331, "\u0120min": 1332, "stance": 1333, "air": 1334, "action": 1335, "wh": 1336, "type": 1337, "util": 1338, "ait": 1339, "<?": 1340, "IC": 1341, "text": 1342, "\u0120ph": 1343, "\u0120fl": 1344, ".M": 1345, "ccess": 1346, "br": 1347, "fore": 1348, "ersion": 1349, "),\u010a": 1350, ".re": 1351, "ateg": 1352, "\u0120loc": 1353, "ins": 1354, "-s": 1355, "trib": 1356, "\u0120Int": 1357, "\u0120array": 1358, ",\"": 1359, "Pro": 1360, "(c": 1361, "ession": 1362, ">\u010a\u010a": 1363, "\u0120she": 1364, "\"]": 1365, "aph": 1366, "\u0120exp": 1367, "erty": 1368, "\u0120Se": 1369, "\u0120par": 1370, "unc": 1371, "ET": 1372, "\u0120read": 1373, "print": 1374, "\u0120rel": 1375, "\u0120form": 1376, "\u0120dr": 1377, "Exception": 1378, "input": 1379, "\u0120trans": 1380, "########": 1381, "order": 1382, "By": 1383, "\u0120aw": 1384, "ities": 1385, "uff": 1386, "play": 1387, ".add": 1388, "\u0120\u00e2\u0122\u0135": 1389, "\u0120want": 1390, "\u0120comp": 1391, "ments": 1392, "\u0120||": 1393, "az": 1394, "be": 1395, "\u0120number": 1396, "\u0120require": 1397, "\u0120Ex": 1398, "60": 1399, "\u0120col": 1400, "\u0120key": 1401, "ember": 1402, "\u0120two": 1403, "\u0120size": 1404, "\u0120where": 1405, "UT": 1406, "result": 1407, "\u0120\u0120\u0120\u0120\u0120\u0120\u0120\u0120\u0120\u0120\u0120\u0120\u0120\u0120\u0120\u0120\u0120\u0120\u0120\u0120\u0120\u0120\u0120\u0120\u0120\u0120\u0120\u0120\u0120\u0120\u0120": 1408, "ough": 1409, "orld": 1410, "ood": 1411, "uch": 1412, "ative": 1413, "ger": 1414, "arent": 1415, "\u0120/*": 1416, "\u0120arg": 1417, "\u0120while": 1418, "23": 1419, "(this": 1420, "\u0120rec": 1421, "\u0120dif": 1422, "State": 1423, "\u0120spec": 1424, "ride": 1425, "_F": 1426, "\u0120look": 1427, "AM": 1428, "ility": 1429, "eter": 1430, "\u00e2\u0122\u013bt": 1431, "\u010a\u010a\u010a": 1432, "ayout": 1433, "--------------------------------": 1434, "ager": 1435, "\u0120could": 1436, "\u0120br": 1437, "ends": 1438, "ures": 1439, "\u0120know": 1440, "ets": 1441, "\u0120If": 1442, "\u0120Sh": 1443, ".w": 1444, "back": 1445, "\u0120ser": 1446, "\u0120+=": 1447, "\u0120fr": 1448, "());\u010a": 1449, "\u0120hand": 1450, "Ind": 1451, "ULL": 1452, "Im": 1453, "();\u010a\u010a": 1454, "\u0120most": 1455, "\u0120try": 1456, "\u0120now": 1457, "rough": 1458, ">\u010d\u010a": 1459, "ackage": 1460, "\u0120him": 1461, "._": 1462, "ify": 1463, "\u0120break": 1464, "\u0120);\u010a": 1465, "ren": 1466, "#define": 1467, "itt": 1468, "\u0120ap": 1469, "\u0109c": 1470, "(n": 1471, "\u0120You": 1472, ":\u010a\u010a": 1473, "-m": 1474, "\u0120every": 1475, "ustom": 1476, "lient": 1477, "ocument": 1478, "cription": 1479, "Error": 1480, "-b": 1481, "\u00d0\u00be": 1482, "][": 1483, "99": 1484, "trans": 1485, "\u0120point": 1486, "\u0120std": 1487, "\u0120fil": 1488, "Time": 1489, "80": 1490, "\u0120mod": 1491, "\u0120->": 1492, "\u0120error": 1493, "ah": 1494, "\u0120text": 1495, "roller": 1496, "lose": 1497, "ql": 1498, "\u0120pol": 1499, "></": 1500, "\u0120show": 1501, "User": 1502, "ased": 1503, "\u0120{\u010a\u010a": 1504, "\u0120find": 1505, "\u00d0\u00b0": 1506, "ED": 1507, "span": 1508, "enu": 1509, "\u0120current": 1510, "\u0120used": 1511, "cept": 1512, "clud": 1513, "\u0120play": 1514, "\u0120log": 1515, "ution": 1516, "fl": 1517, "\u0120see": 1518, "indows": 1519, "\u0120help": 1520, "\u0120these": 1521, "\u0120pass": 1522, "\u0120down": 1523, "\u0120even": 1524, "ason": 1525, "uild": 1526, "from": 1527, "(d": 1528, "\u0120bl": 1529, "label": 1530, "else": 1531, "\u00d0\u00b5": 1532, "\u0120(!": 1533, "ized": 1534, "(),": 1535, "\u0120ob": 1536, "\u0120item": 1537, "ump": 1538, "UR": 1539, "orn": 1540, "\u0120don": 1541, "Se": 1542, "man": 1543, "27": 1544, "ample": 1545, "tn": 1546, "================": 1547, "He": 1548, "gram": 1549, "\u0120did": 1550, "wn": 1551, "_h": 1552, "iver": 1553, "\u0120sm": 1554, "\u0120through": 1555, "\u0120An": 1556, "che": 1557, "\u0120inv": 1558, "ouse": 1559, "\u0120es": 1560, "\u0120New": 1561, "export": 1562, "mary": 1563, "uto": 1564, "ler": 1565, "\u0120last": 1566, "\u0120event": 1567, "try": 1568, "\u00ef\u00bc": 1569, "ily": 1570, "igned": 1571, "ines": 1572, "ollow": 1573, "icense": 1574, "sole": 1575, "lear": 1576, "(int": 1577, "\u0120again": 1578, "\u0120high": 1579, "html": 1580, "Index": 1581, "uthor": 1582, "\u0120/**\u010a": 1583, "\u0120line": 1584, "Event": 1585, "_D": 1586, "\u0120does": 1587, "itial": 1588, "\u0120cr": 1589, "ars": 1590, "28": 1591, "\u0120tem": 1592, "cause": 1593, "face": 1594, "\u0120`": 1595, "_A": 1596, "Button": 1597, "ature": 1598, "ected": 1599, "ES": 1600, "ister": 1601, "\u0109\u010a": 1602, "\u0120before": 1603, "ale": 1604, "other": 1605, "\u0120because": 1606, "roid": 1607, "\u0120ed": 1608, "ik": 1609, "reg": 1610, "\u0120De": 1611, "\u0120dist": 1612, "},\u010a": 1613, "\u0120state": 1614, "\u0120cons": 1615, "rint": 1616, "att": 1617, "\u0120here": 1618, "ined": 1619, "\u0120final": 1620, "\u0120\"\"": 1621, "Key": 1622, "LO": 1623, "\u0120del": 1624, "pty": 1625, "thing": 1626, "26": 1627, "\u0120And": 1628, "\u0120run": 1629, "\u0120X": 1630, "ym": 1631, ".app": 1632, "\u0120very": 1633, "ces": 1634, "_N": 1635, "ared": 1636, "ward": 1637, "list": 1638, "ited": 1639, "olog": 1640, "itch": 1641, "Box": 1642, "ife": 1643, "33": 1644, "\u0120ac": 1645, "\u0120model": 1646, "\u0120mon": 1647, "\u0120way": 1648, "lete": 1649, "\u0120call": 1650, "\u0120att": 1651, "\u0120cal": 1652, "vert": 1653, "\u0120dec": 1654, "lease": 1655, "oun": 1656, "\u0120});\u010a": 1657, "fr": 1658, "formation": 1659, "etail": 1660, "\u0120num": 1661, "aj": 1662, "query": 1663, "\u0120well": 1664, "\u0120object": 1665, "\u0120As": 1666, "\u0120years": 1667, "Color": 1668, "IS": 1669, "\u0120default": 1670, "Wh": 1671, "\u0120ins": 1672, "aint": 1673, "\u0120java": 1674, "\u0120sim": 1675, "\u0120Ar": 1676, "mon": 1677, "til": 1678, "();\u010d\u010a": 1679, "):": 1680, "Set": 1681, "29": 1682, "atter": 1683, "\u0120view": 1684, "\u0120pres": 1685, "array": 1686, "We": 1687, "At": 1688, "\u0120bel": 1689, "\u0120many": 1690, "21": 1691, "Man": 1692, "ender": 1693, "\u0120being": 1694, "\u0120good": 1695, "\u0109\u0109\u0109\u0109\u0109\u0109": 1696, "ational": 1697, "ware": 1698, ".log": 1699, "{\u010d\u010a": 1700, "\u0120using": 1701, "_B": 1702, "\u0120:=": 1703, "_w": 1704, "ists": 1705, "lish": 1706, "\u0120stud": 1707, "\u0120Al": 1708, "\u0120gu": 1709, "config": 1710, "uring": 1711, "time": 1712, "oken": 1713, "amespace": 1714, "\u0120request": 1715, "\u0120child": 1716, "\u0120\u00c3": 1717, "lob": 1718, "\u0120param": 1719, "\u0120}\u010d\u010a": 1720, "01": 1721, "\u0120echo": 1722, "function": 1723, "********************************": 1724, "ps": 1725, "Element": 1726, "alk": 1727, "lication": 1728, "by": 1729, "Size": 1730, "rawing": 1731, "\u0120person": 1732, "\u0120\u0120\u0120\u0120\u0120\u0120\u0120\u0120\u0120\u0120\u0120\u0120\u0120\u0120\u0120\u0120\u0120": 1733, "\\n": 1734, "object": 1735, "ince": 1736, "En": 1737, "File": 1738, "uf": 1739, "ffect": 1740, "AC": 1741, "\u0120style": 1742, "summary": 1743, "\u0120que": 1744, "_r": 1745, "\u0120($": 1746, "Model": 1747, "ident": 1748, "\u0120method": 1749, "IL": 1750, "ott": 1751, "less": 1752, "ING": 1753, "\u0120()": 1754, "\u0120expect": 1755, "ync": 1756, "package": 1757, "35": 1758, "urs": 1759, "\u0120prot": 1760, "./": 1761, "pre": 1762, "\u0120)\u010a": 1763, "ma": 1764, "\u0120sur": 1765, "\u0120found": 1766, "Info": 1767, "par": 1768, "imes": 1769, ".e": 1770, "ains": 1771, "\u0120post": 1772, "-d": 1773, "45": 1774, "olean": 1775, "\u0120sl": 1776, "PE": 1777, "\u0120such": 1778, "select": 1779, "ainer": 1780, "\u0120think": 1781, "\u0120differ": 1782, ".r": 1783, "/**\u010a": 1784, "FF": 1785, "ool": 1786, "plate": 1787, "qual": 1788, "\u0120For": 1789, "\u0120much": 1790, "uc": 1791, "(new": 1792, "odule": 1793, "\u0120som": 1794, "\u0120http": 1795, "\u0120List": 1796, "\u0120count": 1797, "\u0120inst": 1798, "char": 1799, "mit": 1800, ".id": 1801, "aking": 1802, "\u0120gener": 1803, "px": 1804, "vice": 1805, "37": 1806, "_data": 1807, "\u0120NULL": 1808, "}\u010d\u010a": 1809, "idd": 1810, "\u00e3\u0122\u0124": 1811, "\u0120med": 1812, "org": 1813, "ider": 1814, "ache": 1815, "work": 1816, "\u0120check": 1817, "ween": 1818, "\u0120((": 1819, "the": 1820, "ants": 1821, "><": 1822, ".B": 1823, "-c": 1824, "\u0120open": 1825, "\u0120est": 1826, "\u0120\u0120\u0120\u0120\u0120\u0120\u0120\u0120\u010a": 1827, "\u0120next": 1828, "IM": 1829, "\u00d1\u0124": 1830, "OT": 1831, "\u00c3\u00b3": 1832, "\u0120follow": 1833, "content": 1834, "\u0120\u0120\u0120\u0120\u0120\u0120\u0120\u0120\u0120\u0120\u0120\u0120": 1835, "\u0120includ": 1836, "HE": 1837, "\u0120Res": 1838, "\u0120href": 1839, "\u00d0\u00b8": 1840, "\u0120car": 1841, "ypes": 1842, "image": 1843, "Un": 1844, "\u0120bool": 1845, "AD": 1846, "\u0120game": 1847, ".Form": 1848, "rows": 1849, "*/": 1850, "velop": 1851, ".Drawing": 1852, "\u0120path": 1853, "ision": 1854, "\u0120each": 1855, "\u0120Pl": 1856, "_type": 1857, "Path": 1858, "nection": 1859, "\u0120av": 1860, "').": 1861, "\u0120support": 1862, "ENT": 1863, "rem": 1864, "\").": 1865, "\u0120own": 1866, "\u0120cor": 1867, "count": 1868, "miss": 1869, "ually": 1870, "\u0120mem": 1871, "std": 1872, "ience": 1873, "search": 1874, "\"\u010a\u010a": 1875, "Form": 1876, "\u0120sex": 1877, "ename": 1878, "\u0120sign": 1879, "\u0120et": 1880, "\u0120\u0120\u0120\u0120\u0120\u0120\u0120\u0120\u0120\u0120": 1881, "','": 1882, "\u0120App": 1883, "\u0120those": 1884, "off": 1885, "\u0120err": 1886, "\u0120system": 1887, "\u0120best": 1888, "code": 1889, "\u0120same": 1890, "\u0120di": 1891, "uss": 1892, "\u0120create": 1893, "ather": 1894, "Array": 1895, ".in": 1896, "fe": 1897, "Service": 1898, "UN": 1899, "ats": 1900, "\u0120Z": 1901, "alth": 1902, "\u0120made": 1903, "true": 1904, "AB": 1905, "\u0120mark": 1906, "rid": 1907, "ified": 1908, ",\u010d\u010a": 1909, "yn": 1910, "press": 1911, "\u0120group": 1912, "\u0120fin": 1913, "\u0120License": 1914, "Field": 1915, "eger": 1916, "\u0120world": 1917, "iness": 1918, "ty": 1919, "\u0120process": 1920, "(b": 1921, "\u0120cre": 1922, "arn": 1923, "ives": 1924, "\u0120main": 1925, "ideo": 1926, "36": 1927, "_g": 1928, "AG": 1929, "valid": 1930, "img": 1931, "PI": 1932, "\u0120color": 1933, "\u0120report": 1934, "\u0120take": 1935, "rib": 1936, "OM": 1937, "\u0120day": 1938, "Request": 1939, "\u0120sk": 1940, "bers": 1941, "\u0109s": 1942, ".Add": 1943, "oot": 1944, "Image": 1945, "\u0120comple": 1946, "ollection": 1947, "\u0120top": 1948, "\u0120free": 1949, "AS": 1950, "De": 1951, "\u0120On": 1952, "IG": 1953, "90": 1954, "eta": 1955, "Date": 1956, "\u0120action": 1957, "34": 1958, "Over": 1959, "itor": 1960, "\u0120\u0120\u0120\u0120\u0120\u0120\u0120\u0120\u0120\u0120\u0120\u0120\u0120\u0120\u0120\u0120\u0120\u0120\u0120\u0120\u0120\u0120\u0120\u0120\u0120\u0120\u0120\u0120\u0120\u0120\u0120\u0120\u0120\u0120\u0120": 1961, "not": 1962, "\u0120index": 1963, "her": 1964, "icon": 1965, "On": 1966, ";\u010d\u010a\u010d\u010a": 1967, "ivity": 1968, "mand": 1969, ".Windows": 1970, "OL": 1971, "\u0120real": 1972, "\u0120max": 1973, "land": 1974, "....": 1975, "raph": 1976, "\u0120build": 1977, "leg": 1978, "assword": 1979, "?\u010a\u010a": 1980, "\u00e2\u0122\u00a6": 1981, "ook": 1982, "uck": 1983, "\u0120message": 1984, "test": 1985, "ivers": 1986, "38": 1987, "\u0120input": 1988, "\u0120art": 1989, "\u0120between": 1990, "Get": 1991, "enter": 1992, "ground": 1993, "ene": 1994, "\u00c3\u00a1": 1995, ".length": 1996, "Node": 1997, "(i": 1998, "Class": 1999, "for": 2000, "\u0120\u00e2\u0122\u0136": 2001, "ten": 2002, "oin": 2003, "\u0120ke": 2004, "ui": 2005, "\u0120IN": 2006, "\u0120table": 2007, "sub": 2008, "\u0120Le": 2009, "\u0120head": 2010, "\u0120must": 2011, "////////////////": 2012, ".util": 2013, "Context": 2014, "\u0120order": 2015, "\u0120mov": 2016, "over": 2017, "\u0120contin": 2018, "\u0120say": 2019, "static": 2020, ".Text": 2021, "\u0120className": 2022, "pany": 2023, "\u0120ter": 2024, "head": 2025, "rg": 2026, "\u0120product": 2027, "This": 2028, ".\u00e2\u0122\u013f": 2029, "\u0120But": 2030, "70": 2031, "loy": 2032, "\u0120double": 2033, "sg": 2034, "\u0120place": 2035, ".x": 2036, "message": 2037, "\u0120information": 2038, "private": 2039, "\u0120oper": 2040, "ced": 2041, "db": 2042, "\"></": 2043, "Param": 2044, "icle": 2045, "\u0120week": 2046, "\u0120prop": 2047, "table": 2048, "idget": 2049, "place": 2050, "Prop": 2051, "\u0120All": 2052, "els": 2053, "box": 2054, ".\u010a\u010a\u010a\u010a": 2055, ".R": 2056, "\u0120To": 2057, "iter": 2058, "Sh": 2059, "uration": 2060, "older": 2061, "_list": 2062, "come": 2063, "\u0120sw": 2064, "ization": 2065, "\u0109for": 2066, "bl": 2067, "\u0120program": 2068, "(e": 2069, "ape": 2070, "check": 2071, ".Forms": 2072, "\u0120und": 2073, "ategory": 2074, "75": 2075, "ags": 2076, "\u0120response": 2077, "US": 2078, "request": 2079, "\u0120struct": 2080, "escription": 2081, "\u0120code": 2082, "_H": 2083, "uffer": 2084, "\u0120without": 2085, "lobal": 2086, "Manager": 2087, "ilter": 2088, "PO": 2089, "\u0109this": 2090, "option": 2091, "\u0120sol": 2092, "\u0120===": 2093, "akes": 2094, "Controller": 2095, "44": 2096, "Message": 2097, "\u0120ref": 2098, "ever": 2099, "\u0120So": 2100, "aining": 2101, ".append": 2102, "\u0120still": 2103, "\u0120provid": 2104, "\u0120assert": 2105, "med": 2106, "\u0120cap": 2107, "usiness": 2108, "\u0120rep": 2109, "tings": 2110, "ved": 2111, ".N": 2112, "api": 2113, "OD": 2114, "\u0120field": 2115, "iven": 2116, "oto": 2117, "\u00e2\u0122\u013e": 2118, "col": 2119, "(x": 2120, "ght": 2121, "Result": 2122, "Code": 2123, ".is": 2124, "link": 2125, "\u0120cour": 2126, "An": 2127, "\u0120team": 2128, "\u0109int": 2129, "ift": 2130, "55": 2131, "\u0120second": 2132, "\u0120going": 2133, "\u0120range": 2134, "_E": 2135, "ness": 2136, "39": 2137, "\u0120fam": 2138, "\u0120nil": 2139, "\u0120Cont": 2140, "ailable": 2141, "utes": 2142, "atab": 2143, "\u0120fact": 2144, "\u0120vis": 2145, "(&": 2146, "\u0120AN": 2147, "31": 2148, "Al": 2149, "title": 2150, "\u0120android": 2151, "CE": 2152, "\\\"": 2153, "irt": 2154, "\u0120writ": 2155, "\u00d0\u00bd": 2156, "\u0109m": 2157, "ftware": 2158, "ond": 2159, "\u0120ret": 2160, "osition": 2161, "\u0120home": 2162, "\u0120left": 2163, "args": 2164, "meric": 2165, "48": 2166, "\u0120direct": 2167, "oci": 2168, "Pl": 2169, "As": 2170, "ret": 2171, "ado": 2172, "Of": 2173, "chn": 2174, "\u0120Get": 2175, "ee": 2176, "ross": 2177, "();": 2178, "____": 2179, ".ph": 2180, "It": 2181, "oute": 2182, "\u0120exper": 2183, "chool": 2184, "www": 2185, "},": 2186, "\u0120allow": 2187, "\u0120\u00c2": 2188, "())": 2189, "size": 2190, "ism": 2191, "ai": 2192, "tract": 2193, "ane": 2194, "...\u010a\u010a": 2195, "context": 2196, "\u0120beg": 2197, "CH": 2198, "\u0120page": 2199, "hip": 2200, "no": 2201, "core": 2202, "sp": 2203, "\u0120different": 2204, "iable": 2205, "\u0120Me": 2206, "_IN": 2207, "button": 2208, "\u0120Is": 2209, "ervices": 2210, "\u0120ca": 2211, "\u0120around": 2212, "App": 2213, "ration": 2214, "\u0120rece": 2215, "\u0120really": 2216, "\u0120image": 2217, "\u0120target": 2218, "\u0120dep": 2219, "opyright": 2220, "tra": 2221, "ingle": 2222, "ital": 2223, "Layout": 2224, "\u0120both": 2225, "Override": 2226, "arm": 2227, "=>": 2228, "aterial": 2229, "iled": 2230, "\u0120put": 2231, "Qu": 2232, "\u00d1\u0122": 2233, "ung": 2234, "map": 2235, "\u0109\u0109\u0109\u0109\u0109\u0109\u0109\u0109": 2236, "\u0120level": 2237, "Component": 2238, "book": 2239, "creen": 2240, "_RE": 2241, "\u0120config": 2242, "\u00e3\u0123": 2243, "Or": 2244, ".data": 2245, "\u0120document": 2246, "\",\"": 2247, "tribute": 2248, "ux": 2249, "Log": 2250, "ference": 2251, "post": 2252, "_e": 2253, "\u0120local": 2254, "andom": 2255, "assert": 2256, "Val": 2257, "lected": 2258, "ina": 2259, "atabase": 2260, "Add": 2261, "\u0120content": 2262, ".print": 2263, "signed": 2264, "ric": 2265, ".\"\u010a\u010a": 2266, "\u0120fa": 2267, "!\u010a\u010a": 2268, "-f": 2269, "ived": 2270, "\u0120quest": 2271, ".ex": 2272, "\u0120float": 2273, "\u0120develop": 2274, "\u00d0\u00be\u00d0": 2275, "Map": 2276, "ading": 2277, "\u0120poss": 2278, "UE": 2279, "namespace": 2280, "_O": 2281, "\u0109b": 2282, ".Get": 2283, ">(": 2284, "json": 2285, "etails": 2286, "66": 2287, "\u0120too": 2288, "\u0120extends": 2289, "\u0120None": 2290, "\u0120fore": 2291, "(String": 2292, "format": 2293, "\u0120great": 2294, "inter": 2295, "cale": 2296, "\u00d1\u0123": 2297, "ron": 2298, "iving": 2299, "Ent": 2300, "ency": 2301, "xt": 2302, "oy": 2303, "05": 2304, "\u0120month": 2305, "\u0120happ": 2306, "\u0120super": 2307, "bar": 2308, "default": 2309, "_de": 2310, "ords": 2311, "ln": 2312, "({\u010a": 2313, "\u0120Ind": 2314, "ases": 2315, "\u0120title": 2316, "\u0120context": 2317, "08": 2318, "oh": 2319, "-p": 2320, "Em": 2321, "\u0120met": 2322, "Test": 2323, "\u0120life": 2324, "_v": 2325, "\u0120US": 2326, "UI": 2327, "ocation": 2328, "md": 2329, "\u0120[\u010a": 2330, "\u0120]": 2331, "sw": 2332, "\u0120incre": 2333, "script": 2334, "ential": 2335, "ways": 2336, ".de": 2337, "\u0120src": 2338, "\u0120catch": 2339, "\u0120Americ": 2340, "//\u010a": 2341, "\u0120\u0120\u0120\u0120\u0120\u0120\u0120\u0120\u0120\u0120\u0120\u0120\u0120\u0120": 2342, "\u0120pay": 2343, "plit": 2344, "\u00e2\u0122\u0136": 2345, "\u0120coun": 2346, "obj": 2347, ".php": 2348, "\u0120change": 2349, "ething": 2350, "'re": 2351, "aster": 2352, "los": 2353, "lation": 2354, "\u0120\u0120\u010a": 2355, "Le": 2356, "\u00c3\u00a4": 2357, "({": 2358, "ready": 2359, "\u0120No": 2360, "\u0120position": 2361, "\u0120old": 2362, "\u0120book": 2363, "abled": 2364, "bug": 2365, "202": 2366, "Hand": 2367, "};\u010a\u010a": 2368, "isplay": 2369, "aving": 2370, "04": 2371, "\u0120gover": 2372, "\u0120version": 2373, "System": 2374, "nect": 2375, "response": 2376, "Style": 2377, "Up": 2378, "angu": 2379, "\u0120three": 2380, "init": 2381, "ero": 2382, "\u0120law": 2383, "endif": 2384, "\u0120base": 2385, "email": 2386, "(l": 2387, "_V": 2388, "\u0120conf": 2389, "ATE": 2390, "\u0120during": 2391, "tes": 2392, "\u0120console": 2393, "\u0120Pr": 2394, "\u0120spe": 2395, "ves": 2396, "65": 2397, "path": 2398, "ialog": 2399, "dition": 2400, "_to": 2401, "ards": 2402, "\u0120against": 2403, "etwork": 2404, "\u0120Ph": 2405, "_L": 2406, "cur": 2407, "imit": 2408, "With": 2409, "\u0120power": 2410, "ium": 2411, "';\u010a\u010a": 2412, "\u0120wom": 2413, "left": 2414, "ources": 2415, "atri": 2416, "\u0120Im": 2417, "\u0120Man": 2418, "orth": 2419, "${": 2420, "88": 2421, "quals": 2422, "ese": 2423, "_size": 2424, "\u0120iss": 2425, "otal": 2426, "-g": 2427, "ique": 2428, "rame": 2429, "\u0120width": 2430, "erg": 2431, ")(": 2432, "ittle": 2433, "TR": 2434, "\u0120They": 2435, "ences": 2436, "02": 2437, "rl": 2438, "ons": 2439, "\u0120label": 2440, ".y": 2441, "-t": 2442, "update": 2443, "anel": 2444, "sc": 2445, ".to": 2446, "\u0120project": 2447, "\u00c3\u00bc": 2448, "\u0120element": 2449, "\u0120success": 2450, "\u0109\u0109\u010a": 2451, ".sh": 2452, "ram": 2453, "ched": 2454, "())\u010a": 2455, "\u0120(\u010a": 2456, "\u0120date": 2457, "\u0120tot": 2458, "_ST": 2459, "All": 2460, "ification": 2461, "\u0109var": 2462, "\u0120tri": 2463, "chem": 2464, "my": 2465, "\u0120big": 2466, "\u0120Ad": 2467, "\u0120At": 2468, "ots": 2469, "num": 2470, "Act": 2471, "\u0120map": 2472, "era": 2473, "cope": 2474, ".$": 2475, ",\u00e2\u0122\u013f": 2476, "\u0120pop": 2477, "\u0120few": 2478, "\u0120len": 2479, "uid": 2480, "eters": 2481, "ules": 2482, "\u00c3\u0143": 2483, "source": 2484, "https": 2485, "\u0120dem": 2486, "\u0120ear": 2487, "################": 2488, "\u0120match": 2489, "ories": 2490, "49": 2491, "aces": 2492, "\u0120Cl": 2493, "\u0120node": 2494, "78": 2495, "irc": 2496, "local": 2497, "unity": 2498, "};\u010a": 2499, "\u0120another": 2500, "<<": 2501, "ogle": 2502, "\u0120sit": 2503, "ework": 2504, "TE": 2505, ".I": 2506, "NS": 2507, "ology": 2508, "ought": 2509, ".Cont": 2510, ">>": 2511, "\u0120care": 2512, "state": 2513, "\u0109private": 2514, "\u0120effect": 2515, "++)": 2516, "_file": 2517, "ending": 2518, "Line": 2519, "For": 2520, "ior": 2521, "\u0120Sc": 2522, "\u0120fun": 2523, ".Size": 2524, "\u0109else": 2525, "])": 2526, "start": 2527, "vious": 2528, "\u0120},": 2529, "ours": 2530, "\u0120leg": 2531, "\u0120service": 2532, "\u0120since": 2533, "iron": 2534, "Label": 2535, "\u0120non": 2536, "\u0120los": 2537, "iction": 2538, "\u0120full": 2539, "acter": 2540, "board": 2541, "gress": 2542, "\u0120turn": 2543, "ither": 2544, "09": 2545, ".size": 2546, "\u0120body": 2547, "resh": 2548, "eturn": 2549, "199": 2550, "(_": 2551, "yles": 2552, "ormal": 2553, "pi": 2554, "\u0120something": 2555, "!--": 2556, "uint": 2557, "\u0120produ": 2558, "\u0120stand": 2559, "\u0120proble": 2560, "\u0120available": 2561, "mt": 2562, "\u0120Bl": 2563, "\u0120...": 2564, "\u0120block": 2565, "Input": 2566, "\u0120keep": 2567, "Count": 2568, "open": 2569, "\u0120['": 2570, "\u0120throw": 2571, "uilder": 2572, "Action": 2573, "\u0120things": 2574, "True": 2575, "\u0120url": 2576, "\u0120Bo": 2577, "printf": 2578, "\u0120red": 2579, "js": 2580, ".create": 2581, "\u0120Or": 2582, "Status": 2583, "Instance": 2584, "\u0120control": 2585, "\u0120come": 2586, "\u0120custom": 2587, "location": 2588, "07": 2589, "model": 2590, "\u0120\u010d\u010a": 2591, "\u0120source": 2592, "\u0120eas": 2593, ".out": 2594, "]\u010a\u010a": 2595, "oney": 2596, "\u0120await": 2597, "\u0120partic": 2598, "AP": 2599, "ublish": 2600, "odes": 2601, "_pro": 2602, "ply": 2603, "riter": 2604, "\u0120prov": 2605, "\u0120mill": 2606, "HT": 2607, "])\u010a": 2608, "\u0120chang": 2609, "\u0120ask": 2610, "\u0120\u0120\u0120\u0120\u0120\u0120\u0120\u0120\u0120\u0120\u0120\u0120\u0120\u0120\u0120\u0120\u0120\u0120\u0120\u0120\u0120": 2611, "\u0120output": 2612, "\u0120email": 2613, "68": 2614, ".push": 2615, "\u0120}\u010d\u010a\u010d\u010a": 2616, "ination": 2617, "47": 2618, "atrix": 2619, "Table": 2620, "uccess": 2621, "]);\u010a": 2622, "\u0120\u0120\u0120\u0120\u0120\u0120\u0120\u0120\u0120\u0120\u0120\u0120\u0120\u0120\u0120\u0120\u0120\u0120\u0120\u0120\u0120\u0120\u0120\u0120\u0120\u0120\u0120\u0120\u0120\u0120\u0120\u0120\u0120\u0120\u0120\u0120\u0120\u0120\u0120": 2623, "\u0120disc": 2624, "([": 2625, "\u0120business": 2626, "height": 2627, ".html": 2628, "ta": 2629, "field": 2630, "\u0120required": 2631, "_R": 2632, "\u0120govern": 2633, "}\u010d\u010a\u010d\u010a": 2634, "lex": 2635, "500": 2636, ".,": 2637, "\u0120Set": 2638, "urch": 2639, "///": 2640, "ts": 2641, "af": 2642, "\u0120might": 2643, "istory": 2644, "Str": 2645, "\u0120never": 2646, "Response": 2647, "arse": 2648, "ada": 2649, "\u0120How": 2650, "\u0120*)": 2651, "\u0120;": 2652, "\u0120hard": 2653, "Ad": 2654, "\u0120intern": 2655, "used": 2656, "(data": 2657, "mod": 2658, "annel": 2659, "\u0120np": 2660, "ugg": 2661, "\u0120/>\u010a": 2662, "\u0120called": 2663, "body": 2664, "\u0120cho": 2665, "(r": 2666, "_set": 2667, "ird": 2668, "\u0120>=": 2669, "\u0120};\u010a": 2670, "\u0120options": 2671, "\u0120Gener": 2672, "\u0120height": 2673, "Point": 2674, "You": 2675, "ety": 2676, "Click": 2677, "\u0120small": 2678, "\u0120ide": 2679, "\u0120access": 2680, "anguage": 2681, "\u0120protected": 2682, "\u0120job": 2683, "\u0120There": 2684, "Def": 2685, "\u0120address": 2686, "\u0120uint": 2687, "Not": 2688, "oo": 2689, "aps": 2690, "<div": 2691, "ained": 2692, "atur": 2693, "\u0120sum": 2694, "-w": 2695, "\u0120Date": 2696, "\u0120little": 2697, "\u0120fri": 2698, "YPE": 2699, "\u0120port": 2700, "eh": 2701, "pring": 2702, "_path": 2703, "\u0120status": 2704, "06": 2705, "aim": 2706, "bool": 2707, "\u0120appe": 2708, "\u0120os": 2709, ".name": 2710, "ension": 2711, "_G": 2712, "\u0120update": 2713, "Config": 2714, "aff": 2715, "ERR": 2716, "\u0120<=": 2717, "ately": 2718, "#if": 2719, "uction": 2720, "95": 2721, "\u0120Te": 2722, "\u0120link": 2723, "\u0120User": 2724, ".find": 2725, ".org": 2726, "me": 2727, "\u0120given": 2728, "Out": 2729, "#endif": 2730, "\u0120better": 2731, "Page": 2732, "\u0120feel": 2733, "enn": 2734, "ML": 2735, "\u0120already": 2736, "\u0120including": 2737, "oogle": 2738, "ru": 2739, "ically": 2740, "prop": 2741, "lean": 2742, "outer": 2743, "\u0120always": 2744, "ording": 2745, "If": 2746, "orage": 2747, "\u0120parent": 2748, "vis": 2749, "\u0109\u0109\u0109\u0109\u0109\u0109\u0109": 2750, "\u0120got": 2751, "stand": 2752, "\u0120less": 2753, "/s": 2754, "\u0120Ass": 2755, "apt": 2756, "ired": 2757, "\u0120Add": 2758, "\u0120account": 2759, "ploy": 2760, "\u0120der": 2761, "resent": 2762, "\u0120lot": 2763, "\u0120valid": 2764, "\u0109d": 2765, "\u0120bit": 2766, "ponents": 2767, "\u0120following": 2768, "_ex": 2769, "SON": 2770, "\u0120sure": 2771, "ocial": 2772, "\u0120prom": 2773, "erties": 2774, "header": 2775, ".pro": 2776, "\u0120boolean": 2777, "\u0120search": 2778, "ken": 2779, "\u0120orig": 2780, "\u0120er": 2781, "Ed": 2782, "EM": 2783, "aut": 2784, "ling": 2785, "ality": 2786, "ById": 2787, "bed": 2788, "\u0109case": 2789, "46": 2790, "ether": 2791, "posit": 2792, "\u0120invest": 2793, "\u0120OR": 2794, "\u0120says": 2795, "mission": 2796, "AME": 2797, "\u0120temp": 2798, "oad": 2799, "\u0120rest": 2800, "info": 2801, "\u0120interest": 2802, "Arg": 2803, "\u0120perform": 2804, "pons": 2805, "\u0120View": 2806, "\u0120ver": 2807, "lib": 2808, "(const": 2809, "Util": 2810, "Listener": 2811, "arge": 2812, "77": 2813, "\u0120mult": 2814, "\u0120die": 2815, "\u0120site": 2816, "../../": 2817, "EL": 2818, "\u0120values": 2819, "\u0120})\u010a": 2820, "pen": 2821, "No": 2822, "icro": 2823, "\u0120beh": 2824, "\u0120'./": 2825, "acy": 2826, "rec": 2827, "()->": 2828, "\u0109\u0120\u0120\u0120": 2829, "\"))": 2830, "Content": 2831, "_W": 2832, "plement": 2833, "\u0120won": 2834, "\u0120video": 2835, "adi": 2836, "point": 2837, "%%": 2838, "03": 2839, "\u0120gl": 2840, "erved": 2841, "viron": 2842, "IF": 2843, "uted": 2844, "\u00e3\u0125": 2845, "'m": 2846, "\u0120cert": 2847, "\u0120prof": 2848, "\u0120cell": 2849, "ari": 2850, "\u0120player": 2851, "ais": 2852, "\u0120cost": 2853, "\u0120hum": 2854, "(R": 2855, "\u0120offic": 2856, "ks": 2857, ".text": 2858, "atures": 2859, "\u0120total": 2860, "\u0120*/\u010a\u010a": 2861, "ope": 2862, "\u0120stat": 2863, "UM": 2864, "\u0120load": 2865, "ights": 2866, "\u0120clear": 2867, "uro": 2868, "\u0120techn": 2869, "upport": 2870, "IR": 2871, "\u0120row": 2872, "\u0120seem": 2873, "\u0120q": 2874, "\u0120short": 2875, "\u0120Not": 2876, "ipp": 2877, "Group": 2878, "section": 2879, "max": 2880, "irl": 2881, "\u0120override": 2882, "\u0120company": 2883, "\u0120done": 2884, "\");\u010d\u010a": 2885, "\u0120gre": 2886, ".Re": 2887, "\u0120belie": 2888, "rist": 2889, "\u0120health": 2890, "ANT": 2891, "()\u010a\u010a": 2892, "\u0120Be": 2893, ".value": 2894, "\u0120Gr": 2895, "ottom": 2896, "\u0120args": 2897, "PT": 2898, "status": 2899, "func": 2900, "uments": 2901, "-h": 2902, "Number": 2903, ":\u010d\u010a": 2904, "\u0120Log": 2905, "erver": 2906, "\u0120),\u010a": 2907, "ament": 2908, "\u0120obj": 2909, "inc": 2910, "\u0120children": 2911, "icy": 2912, "IZ": 2913, "ands": 2914, "ably": 2915, "\u0120distrib": 2916, "\u0120cur": 2917, "erial": 2918, "\u0120days": 2919, "reated": 2920, "rect": 2921, "-l": 2922, "irm": 2923, "idden": 2924, "omb": 2925, "\u0120initial": 2926, ".js": 2927, "\u0120\u00e2": 2928, "Query": 2929, "\u0120online": 2930, "imal": 2931, ".con": 2932, "au": 2933, "Url": 2934, "control": 2935, "irection": 2936, "\u0120instance": 2937, "ORT": 2938, "\u0120Fr": 2939, "where": 2940, "\u0120javax": 2941, "\u0120organ": 2942, "apter": 2943, "\u0120reason": 2944, "options": 2945, "59": 2946, "\u0120Mar": 2947, "(a": 2948, "\u0120within": 2949, ".\u00e2\u0122\u013f\u010a\u010a": 2950, "ODE": 2951, "_DE": 2952, "admin": 2953, "ended": 2954, "\u0120design": 2955, "\u0120Data": 2956, "une": 2957, "\u0120File": 2958, "root": 2959, "\u0120cent": 2960, "\u0120arr": 2961, "_add": 2962, "len": 2963, "page": 2964, ",'": 2965, "_str": 2966, "\u0120bro": 2967, "ability": 2968, "outh": 2969, "58": 2970, "/c": 2971, "pose": 2972, "irtual": 2973, "earch": 2974, "_url": 2975, "argin": 2976, "Http": 2977, "\u0120school": 2978, "ava": 2979, "\u0120consider": 2980, ".label": 2981, "\u0120Array": 2982, "42": 2983, "web": 2984, "opt": 2985, ".println": 2986, "ulation": 2987, "\u0120func": 2988, "PL": 2989, "\u0120\"\\": 2990, "\u0120Text": 2991, "actory": 2992, "(function": 2993, "null": 2994, "\u0120eng": 2995, "down": 2996, "\u0120include": 2997, "\u0120En": 2998, "\u0120Dr": 2999, "\u0120db": 3000, "!!": 3001, "side": 3002, "\u0120init": 3003, "quired": 3004, "\u0120She": 3005, "Column": 3006, "react": 3007, "\u0120ann": 3008, "\u0120stop": 3009, "\u0120later": 3010, "\u0120That": 3011, "ention": 3012, "df": 3013, "UG": 3014, "ILE": 3015, "\u0120client": 3016, "raft": 3017, "ffer": 3018, "POST": 3019, "elper": 3020, "\u0120love": 3021, "quote": 3022, "oud": 3023, "\u0120json": 3024, "\u0120able": 3025, "\u0120men": 3026, "AX": 3027, "\u0120Copyright": 3028, "\u00c3\u00b6": 3029, "avig": 3030, "req": 3031, "Client": 3032, "});\u010a": 3033, ".Com": 3034, "erc": 3035, "ilt": 3036, "pecial": 3037, "_com": 3038, "room": 3039, ".Name": 3040, "\u0120give": 3041, "amb": 3042, "ike": 3043, "\u0120condition": 3044, "client": 3045, "ators": 3046, ":\"": 3047, "\u0120copy": 3048, "uture": 3049, "iversity": 3050, "ernal": 3051, "{{": 3052, "\u0120Can": 3053, "ounc": 3054, "do": 3055, "\u0120occ": 3056, "\u0120appro": 3057, "thers": 3058, "ze": 3059, "\u0120either": 3060, "\u0120Fl": 3061, "\u0120important": 3062, "\u0120lead": 3063, "attr": 3064, "ART": 3065, "Equal": 3066, "\u0120da": 3067, "etch": 3068, "entity": 3069, "\u0120family": 3070, "adding": 3071, "\u0120option": 3072, "\u0120exist": 3073, "ica": 3074, "\u0120Object": 3075, "69": 3076, "'ve": 3077, "vers": 3078, "itional": 3079, "67": 3080, "output": 3081, "\u0120True": 3082, "\u0120OF": 3083, "_time": 3084, "\u0120offer": 3085, "\u0120});\u010a\u010a": 3086, "HER": 3087, "egin": 3088, "\"\"": 3089, "\u0120water": 3090, "\u0120che": 3091, "\u0120My": 3092, "ored": 3093, "\u0120step": 3094, "ances": 3095, "CK": 3096, "AY": 3097, "\u00e0\u00b8": 3098, "struction": 3099, "(C": 3100, "300": 3101, "ouch": 3102, "Stream": 3103, "active": 3104, "ama": 3105, "Entity": 3106, "product": 3107, "(){\u010a": 3108, "\u0120government": 3109, "\u0120ID": 3110, "ajor": 3111, "And": 3112, "\u0120display": 3113, "\u00d0\u00bb": 3114, "\u0120times": 3115, "\u0120four": 3116, "\u0120far": 3117, "\u0120present": 3118, "\u0120NS": 3119, "\u0120\\\u010a": 3120, "uest": 3121, "\u0120bas": 3122, "echo": 3123, "child": 3124, "ifier": 3125, "Handler": 3126, "\u0120lib": 3127, "Property": 3128, "translation": 3129, "\u0120room": 3130, "\u0120once": 3131, "\u0120[]": 3132, "center": 3133, "================================": 3134, "\u0120results": 3135, "\u0120continue": 3136, "\u0120talk": 3137, "_get": 3138, "\u0120grow": 3139, ".sw": 3140, "eb": 3141, "\u0120Public": 3142, "OP": 3143, "ecute": 3144, "ols": 3145, "\u0120**": 3146, "\");\u010a\u010a": 3147, "\u0120mass": 3148, "ured": 3149, ".class": 3150, "omic": 3151, "\u0120mean": 3152, "ips": 3153, "\u0120aut": 3154, ");\u010d\u010a\u010d\u010a": 3155, "\u0120until": 3156, "\u0120market": 3157, "\u0120area": 3158, "uit": 3159, "\u0120length": 3160, "\u0120With": 3161, "structor": 3162, "event": 3163, "\"><": 3164, "\u0120Sp": 3165, "IV": 3166, "\u0120mus": 3167, "iff": 3168, "\u0120kind": 3169, "author": 3170, "ounds": 3171, "mb": 3172, "_key": 3173, "41": 3174, "width": 3175, "pository": 3176, "\u0120light": 3177, "uk": 3178, "Row": 3179, "ohn": 3180, "alf": 3181, "vironment": 3182, "apper": 3183, "ollections": 3184, "\u0120side": 3185, "_info": 3186, "\u0120example": 3187, "imary": 3188, "\u0120wr": 3189, "\u0120camp": 3190, "cribe": 3191, "255": 3192, "\"/": 3193, "\u0120miss": 3194, "way": 3195, "\u0120based": 3196, "\u0120plan": 3197, "Vis": 3198, "omain": 3199, "unk": 3200, "\u0120away": 3201, "UP": 3202, "<T": 3203, "OS": 3204, "iod": 3205, "\u0120Mon": 3206, "\u00e2\u0122\u013bre": 3207, "\u0120lik": 3208, "\u00c3\u00a7": 3209, "ively": 3210, ".v": 3211, "imer": 3212, "izer": 3213, "Sub": 3214, "\u0120button": 3215, "\u0120Up": 3216, "\u0120experience": 3217, "CL": 3218, "\u0120render": 3219, "_value": 3220, "\u0120near": 3221, "URL": 3222, "alt": 3223, "\u0120country": 3224, "ibility": 3225, "57": 3226, "(),\u010a": 3227, "ead": 3228, "\u0120author": 3229, "\u0120specific": 3230, "base": 3231, "(name": 3232, "ones": 3233, "\u0120Do": 3234, "\u0120along": 3235, "year": 3236, "\u0120express": 3237, ".'": 3238, "env": 3239, "\u0120begin": 3240, "\u0120software": 3241, "\u0120imp": 3242, "\u0120win": 3243, "\u00c3\u00b3n": 3244, "\u0120thing": 3245, "Trans": 3246, "\u0120THE": 3247, "\u0120<?": 3248, "\u0120why": 3249, "\u0120doesn": 3250, "ij": 3251, "ging": 3252, "\u0109g": 3253, "\u0120single": 3254, "offset": 3255, "arning": 3256, "ograph": 3257, "ley": 3258, "_count": 3259, "\u0120anal": 3260, "create": 3261, "/m": 3262, "\u0120Reg": 3263, "98": 3264, "unch": 3265, "=$": 3266, "isk": 3267, "\u0120rights": 3268, "(M": 3269, "\u0120\"\"\"\u010a": 3270, "aper": 3271, ".model": 3272, "\u0120po": 3273, "empty": 3274, "artment": 3275, "\u0120ant": 3276, "\u0120When": 3277, "\u0120women": 3278, "\u0120Ed": 3279, "\u0120season": 3280, "\u0120dest": 3281, "\u00c3\u00a3": 3282, "(h": 3283, "\u0120possible": 3284, "\u0120sever": 3285, "\u0120btn": 3286, "\u0120didn": 3287, "\u0120sent": 3288, "\u0120enc": 3289, "\u0120command": 3290, "\u0120],\u010a": 3291, "_x": 3292, "\u0120recent": 3293, "olution": 3294, "vector": 3295, "\u0120By": 3296, "\u0120May": 3297, "\u0120Act": 3298, "\u00bb\u00bf": 3299, "\u0120money": 3300, "INT": 3301, "bsite": 3302, "\u0109p": 3303, ".\u010d\u010a": 3304, "\u00ef\u00bb\u00bf": 3305, "sl": 3306, "attern": 3307, "\u0120Class": 3308, "\u0120told": 3309, "udio": 3310, "current": 3311, "\u0120equ": 3312, "\u0120auto": 3313, "\u0120State": 3314, "da": 3315, "msg": 3316, "));\u010a\u010a": 3317, "\u0120working": 3318, "\u0120query": 3319, "\u0120Br": 3320, "\u0120window": 3321, "auth": 3322, "only": 3323, "\u0109t": 3324, "\u0120least": 3325, "agn": 3326, "\u0120expl": 3327, "itter": 3328, "aring": 3329, "\u0120column": 3330, "\u0120General": 3331, "\":\"": 3332, "eral": 3333, "rior": 3334, "\u0120record": 3335, "IB": 3336, "EX": 3337, "\u0120dat": 3338, "\u0120making": 3339, "ued": 3340, "\u0120Car": 3341, "emp": 3342, "\".": 3343, "\u0120Med": 3344, "\u0120close": 3345, "\u0120percent": 3346, "\u0120past": 3347, "(g": 3348, ":(": 3349, "\u0120write": 3350, "\u0120move": 3351, "\u0120pat": 3352, "Control": 3353, ".To": 3354, "\u0120vi": 3355, "*/\u010a": 3356, "inate": 3357, "'ll": 3358, "aged": 3359, "Null": 3360, "\u0120special": 3361, "IZE": 3362, "\u0120city": 3363, "/*\u010a": 3364, "\u0120Eng": 3365, "ixed": 3366, "inary": 3367, "py": 3368, "\u0120eff": 3369, "ario": 3370, "\u0120tell": 3371, "avor": 3372, "\u0120select": 3373, "level": 3374, "imum": 3375, "oper": 3376, "Builder": 3377, "IP": 3378, "'),\u010a": 3379, "esc": 3380, "\u0120font": 3381, "\";\u010a\u010a": 3382, "\u0120Am": 3383, "ished": 3384, "ills": 3385, "Inter": 3386, "OW": 3387, "\u0120course": 3388, "\u0120late": 3389, "iddle": 3390, "43": 3391, "\u0120amount": 3392, "\u0120async": 3393, "ino": 3394, "cul": 3395, "\u0120\u00ec": 3396, "andle": 3397, "_user": 3398, "\u0120ben": 3399, "\u0120Cal": 3400, "\u0120$_": 3401, "\u0120Rep": 3402, "\u0120enough": 3403, "Token": 3404, ".user": 3405, "(j": 3406, "Sc": 3407, "Width": 3408, "now": 3409, "atform": 3410, "\u0120looking": 3411, "\u0120hold": 3412, "Module": 3413, "ITY": 3414, "vo": 3415, "ison": 3416, ".Data": 3417, "yc": 3418, "\u0120pot": 3419, "\u0120Trump": 3420, "idual": 3421, "ides": 3422, "rt": 3423, "\u0120property": 3424, "\u0120\u0120\u0120\u0120\u0120\u0120\u0120\u0120\u0120\u0120\u0120\u0120\u0120\u0120\u0120\u0120\u0120\u0120\u0120\u0120\u0120\u0120\u0120\u0120\u0120\u0120\u0120\u0120\u0120\u0120\u0120\u0120\u0120\u0120\u0120\u0120\u0120\u0120\u0120\u0120\u0120\u0120\u0120": 3425, "amework": 3426, "go": 3427, "\u0120low": 3428, "\u0120para": 3429, "\u0120price": 3430, "ury": 3431, "\u0120today": 3432, "roy": 3433, "\u0120'/": 3434, "\u0120polit": 3435, "\u0120''": 3436, "ymb": 3437, "Ph": 3438, "\u0120adv": 3439, "\u0120attack": 3440, "\u0120Ste": 3441, "ROM": 3442, "400": 3443, "ana": 3444, "\u0120means": 3445, "\u0120story": 3446, "ids": 3447, "aken": 3448, "\u0120meet": 3449, "\u0120mom": 3450, "\u0120\u00e2\u0122\u013a": 3451, "\u0120?>": 3452, "\u0120den": 3453, "obile": 3454, "change": 3455, "\u0120\u0120\u0120\u0120\u0120\u0120\u0120\u0120\u0120\u0120\u0120\u0120\u010a": 3456, "ici": 3457, "na": 3458, "\u0120Form": 3459, "\u0120sort": 3460, "Select": 3461, "pare": 3462, "\u0120thought": 3463, "_con": 3464, "\u0120task": 3465, "ocus": 3466, "\u0120DE": 3467, "\u0120Min": 3468, "\u0120opt": 3469, "\u0109break": 3470, "umer": 3471, "KE": 3472, "then": 3473, "\u0120det": 3474, "\u0120Test": 3475, "ports": 3476, "\u0120review": 3477, "('/": 3478, "move": 3479, "\u0120switch": 3480, "ERT": 3481, "patch": 3482, "annot": 3483, "\u00e3\u0124": 3484, "\u0120above": 3485, "itive": 3486, "56": 3487, "\u0120question": 3488, "\u0120Qu": 3489, "\u00e3\u0122\u0124\u010a\u010a": 3490, "gle": 3491, "\u0120word": 3492, "\u0120provide": 3493, "\u0120Return": 3494, "\u0120research": 3495, "\u00c3\u00a3o": 3496, "ustr": 3497, "\u0120publish": 3498, "chema": 3499, "}}": 3500, "\u0120CON": 3501, "-in": 3502, "allback": 3503, "\u0120cover": 3504, "\\\\": 3505, "color": 3506, "\u0120IS": 3507, "\u0120whether": 3508, "imate": 3509, "isc": 3510, "Bar": 3511, "\u0120div": 3512, "Be": 3513, "ourn": 3514, "\u0120having": 3515, "lem": 3516, "player": 3517, "abs": 3518, "amera": 3519, "ney": 3520, "\u0120exc": 3521, "gether": 3522, "plied": 3523, "ao": 3524, "[$": 3525, "\u0120++": 3526, "ipe": 3527, "show": 3528, "/d": 3529, "[:": 3530, "agement": 3531, "lev": 3532, "_ID": 3533, "97": 3534, "rary": 3535, "ades": 3536, "_se": 3537, "ause": 3538, "\u0120employ": 3539, "\u0120*/\u010d\u010a": 3540, "\u0120fre": 3541, "\u0120'@": 3542, "\u0120complet": 3543, "\u0120large": 3544, "ral": 3545, "\\x": 3546, "\u0120fac": 3547, "<String": 3548, "\u0120created": 3549, "uper": 3550, ".state": 3551, "\u0120host": 3552, "eneric": 3553, "/b": 3554, "(!": 3555, "while": 3556, "ias": 3557, "BUG": 3558, "\u0120);\u010a\u010a": 3559, "\u0120role": 3560, "Reg": 3561, "\u0120Color": 3562, "Start": 3563, "\u0120porn": 3564, "top": 3565, "\u0120web": 3566, "\u0120dev": 3567, "\u0120deal": 3568, "++)\u010a": 3569, "Integer": 3570, "position": 3571, ".on": 3572, "\u0120(\"": 3573, "\u00e4\u00b8": 3574, "\u0120problem": 3575, "sv": 3576, "\u0120press": 3577, "ABLE": 3578, "ATION": 3579, "\u0120See": 3580, "anch": 3581, "\u0120though": 3582, "leep": 3583, "\u0120<!--": 3584, "\u0120points": 3585, "\u0120\u0120\u0120\u0120\u0120\u0120\u0120\u0120\u0120\u0120\u0120\u0120\u0120\u0120\u0120\u0120\u0120\u0120\u0120\u0120\u0120\u0120\u0120\u0120\u0120": 3586, ".J": 3587, "\u0120::": 3588, "ptr": 3589, "DB": 3590, "++;\u010a": 3591, ".png": 3592, "node": 3593, "soft": 3594, "pond": 3595, "\u0120ever": 3596, "----------------------------------------------------------------": 3597, "Menu": 3598, "('#": 3599, "\u0120services": 3600, "pg": 3601, "})\u010a": 3602, "params": 3603, "\u0120actually": 3604, "\u0120\"/": 3605, "Empty": 3606, "Method": 3607, "\u0120ident": 3608, "unic": 3609, "\u0120million": 3610, "\u0120aff": 3611, "style": 3612, "\u0120conc": 3613, "ios": 3614, "ignment": 3615, "ULT": 3616, "Pr": 3617, "\";\u010d\u010a": 3618, "\u0120understand": 3619, "uary": 3620, "\u0120happen": 3621, "\u0120server": 3622, "\u0120Co": 3623, "SC": 3624, "\u0120les": 3625, "\u0120files": 3626, "Grid": 3627, "sql": 3628, "\u0120often": 3629, "\u0120info": 3630, "_tr": 3631, "src": 3632, "ony": 3633, "\u0120space": 3634, "umb": 3635, "\u0120password": 3636, "\u0120store": 3637, ",\u010a\u010a": 3638, "\u0120What": 3639, "ged": 3640, "\u0120False": 3641, "Us": 3642, "swer": 3643, "_index": 3644, "\u0120format": 3645, "most": 3646, "sm": 3647, "New": 3648, "\u0120details": 3649, "\u0120prob": 3650, "\u0120AND": 3651, "()\u010d\u010a": 3652, "ilar": 3653, "\u0120${": 3654, "rypt": 3655, ".Collections": 3656, "$this": 3657, "\u0120Free": 3658, "_of": 3659, "(false": 3660, "dated": 3661, "\u0120>>": 3662, "\u0120face": 3663, "CTION": 3664, "\u0120save": 3665, "\u0120typ": 3666, "dev": 3667, "(\"#": 3668, "AGE": 3669, "container": 3670, "edit": 3671, "QL": 3672, "\u0120items": 3673, "\u0120social": 3674, "ien": 3675, "\u0120React": 3676, ").\u010a\u010a": 3677, "\u0120mar": 3678, "\u0120redu": 3679, "\u0120RE": 3680, ".put": 3681, "\u0120major": 3682, "Cell": 3683, "next": 3684, "\u0120expected": 3685, "\u0120yet": 3686, "\u0120indiv": 3687, "tributes": 3688, "atis": 3689, "amed": 3690, "\u0120food": 3691, "Source": 3692, "(string": 3693, "\u0120+\u010a": 3694, "ites": 3695, "dr": 3696, "\u0120members": 3697, "\u0120comb": 3698, "items": 3699, "\u0120Per": 3700, "TH": 3701, "=True": 3702, "\u0120bar": 3703, "_SE": 3704, "comm": 3705, "(w": 3706, ")\u010a\u010a\u010a": 3707, "\u0120send": 3708, "\u0120inc": 3709, "unsigned": 3710, "FA": 3711, "\u0120params": 3712, "apping": 3713, "ros": 3714, "ugin": 3715, "fa": 3716, "\u0120connection": 3717, "\u0120};\u010a\u010a": 3718, "\u0120become": 3719, "Mode": 3720, "\u0120ev": 3721, "\u0120diff": 3722, "\u0120United": 3723, "Height": 3724, "fully": 3725, "images": 3726, "\u0120makes": 3727, "\u0120global": 3728, "\u0120contact": 3729, "':\u010a": 3730, "\u0120abs": 3731, "\u00d0\u00b0\u00d0": 3732, "float": 3733, "\u0120except": 3734, "\u0120Pol": 3735, "Child": 3736, "typ": 3737, "\u0120certain": 3738, "i\u00c3\u00b3n": 3739, "OUT": 3740, "\u0120impro": 3741, "iles": 3742, "\u0120-->\u010a": 3743, "\u0120Part": 3744, "values": 3745, "oss": 3746, "/**": 3747, "ilit": 3748, "\u0120Event": 3749, "curity": 3750, "ster": 3751, "\u0120character": 3752, "198": 3753, "\u0120news": 3754, "\u0120\",": 3755, "\u0120device": 3756, "cel": 3757, "login": 3758, "heet": 3759, "Default": 3760, "@\"": 3761, "\u0109\u0120": 3762, "click": 3763, "(value": 3764, "\u0120Ab": 3765, "\u0120previous": 3766, "ERROR": 3767, "ocal": 3768, "\u0120material": 3769, "\u0120below": 3770, "\u0120Christ": 3771, "\u0120media": 3772, "cover": 3773, "\u0120UI": 3774, "\u0120fail": 3775, "\u0120black": 3776, "\u0120component": 3777, "\u0120American": 3778, "\u0120added": 3779, "\u0120buy": 3780, "stit": 3781, "\u0120came": 3782, "\u0120delete": 3783, "property": 3784, "oding": 3785, "\u0120card": 3786, "rops": 3787, "\u0120https": 3788, "\u0120root": 3789, "\u0120handle": 3790, "CC": 3791, "Back": 3792, "emplate": 3793, "\u0120getting": 3794, "_by": 3795, "mail": 3796, "_sh": 3797, ".assert": 3798, "\u0120Dec": 3799, "(true": 3800, "\u0120comput": 3801, "\u0120claim": 3802, "'=>": 3803, "\u0120Sub": 3804, "\u0120air": 3805, "ops": 3806, "nav": 3807, "ements": 3808, "(id": 3809, "\u0120enter": 3810, "anged": 3811, "End": 3812, "\u0120location": 3813, "\u0120night": 3814, "\u0120doing": 3815, "\u0120Red": 3816, "lin": 3817, "}\u010a\u010a\u010a": 3818, "vider": 3819, "\u0120pick": 3820, "\u0120watch": 3821, "essages": 3822, "\u0120human": 3823, "\u0120dam": 3824, "pend": 3825, "dir": 3826, "\u0120tax": 3827, "\u0120girl": 3828, "reet": 3829, "\u0120box": 3830, "\u0120strong": 3831, "(v": 3832, "rel": 3833, "\u0120interface": 3834, "\u0120msg": 3835, "fect": 3836, "_at": 3837, "\u0120house": 3838, "\u0120track": 3839, "');\u010a\u010a": 3840, "je": 3841, "\u0120John": 3842, "istr": 3843, "(S": 3844, "ube": 3845, "\u0120ce": 3846, "itted": 3847, "VER": 3848, "*)": 3849, "parent": 3850, "\u0120application": 3851, "any": 3852, ".swing": 3853, "\u0120pack": 3854, "\\u": 3855, "\u0120pract": 3856, "\u0120section": 3857, "ctx": 3858, "\u0120unsigned": 3859, ".Point": 3860, "\u0120One": 3861, "\u00c4\u00b1": 3862, "iple": 3863, "aid": 3864, "\u00d1\u0125": 3865, "Vector": 3866, "byte": 3867, "\u0120wait": 3868, "\u0120\u00c3\u0142": 3869, "\u00c3\u00a5": 3870, "\u0120together": 3871, "\u0120throws": 3872, "FO": 3873, "'))": 3874, "host": 3875, "ising": 3876, ".view": 3877, "\u0120terms": 3878, "framework": 3879, "-r": 3880, "\u0120apply": 3881, "\u0120session": 3882, "Options": 3883, "uggest": 3884, "\u0120others": 3885, "witter": 3886, "\u0120fund": 3887, "Init": 3888, "__(": 3889, "ensor": 3890, "GET": 3891, "\u0120several": 3892, "ii": 3893, "[j": 3894, "IO": 3895, "\u0120template": 3896, "Position": 3897, "\u0120econ": 3898, "achine": 3899, "\u0120il": 3900, ".spring": 3901, "main": 3902, "elt": 3903, "iment": 3904, "Rec": 3905, "mm": 3906, "\u0120University": 3907, "ursor": 3908, "\u0120\u0120\u0120\u0120\u0120\u0120\u0120\u0120\u0120\u0120\u0120\u0120\u0120\u0120\u0120\u0120\u0120\u0120\u0120\u0120": 3909, "GL": 3910, "icture": 3911, "ithub": 3912, "cer": 3913, "cast": 3914, "From": 3915, "ales": 3916, "\u0120subject": 3917, "password": 3918, "ny": 3919, "\u0120esc": 3920, ".write": 3921, "\u00ef\u00bc\u012e": 3922, "What": 3923, ".H": 3924, "\u0120history": 3925, "\u0120Fe": 3926, "\u0120individual": 3927, "unit": 3928, "\u0120-->": 3929, "\u0120du": 3930, "IST": 3931, "\u0120users": 3932, "fs": 3933, "false": 3934, "unt": 3935, "Title": 3936, "\u0120mot": 3937, "\u0120future": 3938, "ached": 3939, "\u0120started": 3940, "\u0120mode": 3941, "\u0120'<": 3942, "_array": 3943, "\u0120ax": 3944, "'];\u010a": 3945, "ires": 3946, "There": 3947, "ught": 3948, "tml": 3949, "posed": 3950, "icult": 3951, "\u0120took": 3952, "\u0120games": 3953, "\u0120}}": 3954, "\u0120?>\u010a": 3955, "\u0120products": 3956, "Is": 3957, "\u0120bad": 3958, "\u0120Des": 3959, ".path": 3960, "'\u010a\u010a": 3961, "\u0120Post": 3962, "avel": 3963, "(:": 3964, "150": 3965, "\u0120needs": 3966, "\u0120known": 3967, "Fl": 3968, "\u0120exec": 3969, "\u0120seen": 3970, "51": 3971, "ume": 3972, "\u0120border": 3973, "\u0120live": 3974, "temp": 3975, "Per": 3976, "\u0120variable": 3977, "iet": 3978, "\u0120Def": 3979, "\u0120ge": 3980, "eme": 3981, "_back": 3982, "first": 3983, "\u0120provided": 3984, "////////////////////////////////": 3985, "\u0120filename": 3986, "\u0120hope": 3987, "uly": 3988, "auto": 3989, "find": 3990, "_string": 3991, "btn": 3992, "itude": 3993, "Attribute": 3994, "\u0120young": 3995, ".txt": 3996, "\u0120website": 3997, "\u0120Prop": 3998, "\u0120ey": 3999, ">();\u010a": 4000, "ional": 4001, "ARR": 4002, "ictionary": 4003, "urther": 4004, ".</": 4005, "ALL": 4006, "\u0120study": 4007, "ili": 4008, "\u0120network": 4009, "yl": 4010, "istance": 4011, "OK": 4012, "NU": 4013, "rest": 4014, "\u0120ST": 4015, "icrosoft": 4016, "\u0120limit": 4017, "\u0120cut": 4018, "():\u010a": 4019, "\u0120cou": 4020, "ogn": 4021, "\u0120sizeof": 4022, "ival": 4023, "\u0120went": 4024, ".z": 4025, "Link": 4026, "\u0120fire": 4027, "\u0120across": 4028, "\u0120community": 4029, "region": 4030, "NE": 4031, "Ref": 4032, "\u0120official": 4033, "\u0120visit": 4034, "olve": 4035, "\u0120received": 4036, "\u0120token": 4037, "\u0120months": 4038, "\u0120anim": 4039, "\u0120particular": 4040, "styles": 4041, "ico": 4042, "\u0120ess": 4043, "87": 4044, ".Control": 4045, "\u0120\u00c3\u00a9": 4046, "ball": 4047, "\u0120learn": 4048, "inding": 4049, "Var": 4050, "\u0120decl": 4051, "(err": 4052, "LECT": 4053, "One": 4054, "pha": 4055, "\u0120~": 4056, "fort": 4057, "asure": 4058, "\u0120mind": 4059, "\u0120End": 4060, "Check": 4061, "\u0120quick": 4062, "\"),": 4063, "AND": 4064, "utions": 4065, "Base": 4066, "________": 4067, "\u0120comment": 4068, "INE": 4069, "\u00e2\u0122\u013bve": 4070, "But": 4071, "\u0120El": 4072, "\u0120Us": 4073, "\u0120admin": 4074, "mark": 4075, "\u0120Name": 4076, "`\u010a": 4077, "\u0120Type": 4078, "amic": 4079, "pc": 4080, "loor": 4081, "FT": 4082, "\u0120opp": 4083, "cket": 4084, ")->": 4085, "tx": 4086, "\u0120pur": 4087, "uel": 4088, "ymbol": 4089, "uation": 4090, "anger": 4091, "\u0120background": 4092, "ecess": 4093, "efined": 4094, "........": 4095, "\u0120description": 4096, "\u0120represent": 4097, "\"));\u010a": 4098, "pression": 4099, "rowser": 4100, "\u0120series": 4101, "wards": 4102, "52": 4103, "($_": 4104, "aise": 4105, "\u0120hot": 4106, "acity": 4107, "ries": 4108, "actions": 4109, "Create": 4110, "adio": 4111, "amples": 4112, "\u0120original": 4113, "ensive": 4114, "font": 4115, "stream": 4116, "\u00ef\u00bb\u00bfusing": 4117, ".springframework": 4118, "001": 4119, "server": 4120, "\u0120bill": 4121, "ACK": 4122, "ilename": 4123, "\u0120frame": 4124, "\u0120=\u010a": 4125, "Edit": 4126, "adius": 4127, "\u0120draw": 4128, "anks": 4129, "\u0120deter": 4130, "\u0120comes": 4131, "_int": 4132, "\u0120foreach": 4133, "angle": 4134, "\u0120elect": 4135, "pected": 4136, "Header": 4137, "istration": 4138, "False": 4139, "\u0120Game": 4140, "\u0120filter": 4141, "Activity": 4142, "\u0120larg": 4143, "inition": 4144, "\u0120\"<": 4145, "256": 4146, "ised": 4147, "\u0120remove": 4148, "\u0120Trans": 4149, "met": 4150, "see": 4151, "Format": 4152, "Command": 4153, "\u0120EX": 4154, "None": 4155, "\u0120front": 4156, "ASE": 4157, "\u0120Rec": 4158, "oundation": 4159, "\u0120vo": 4160, "96": 4161, "=\\\"": 4162, "(*": 4163, "Change": 4164, ".Write": 4165, "group": 4166, "ients": 4167, "uy": 4168, "****************************************************************": 4169, "\u0120dig": 4170, "hr": 4171, "(-": 4172, "\u0120gen": 4173, "number": 4174, "vec": 4175, "urope": 4176, "entry": 4177, "LL": 4178, "\u0120ste": 4179, "Valid": 4180, "'],": 4181, "_param": 4182, "\u0120selected": 4183, "\u0120according": 4184, "\u0120Dis": 4185, "\u0120util": 4186, "Buffer": 4187, "_error": 4188, "\u0120associ": 4189, "_SIZE": 4190, "\u0120wor": 4191, "\u0120printf": 4192, "rag": 4193, "\u00c2\u0142": 4194, "DD": 4195, "\u0120Val": 4196, "\u0120activ": 4197, "Eng": 4198, "etime": 4199, "\u0120virtual": 4200, "aign": 4201, "aur": 4202, "\u0120Pres": 4203, "\u0120Exception": 4204, "\u0120anything": 4205, "\u0120Off": 4206, "\u0120hours": 4207, "\u0120war": 4208, "Args": 4209, "aging": 4210, "\u0120models": 4211, "\u0120Time": 4212, "Ob": 4213, "ams": 4214, "joy": 4215, "\u0120early": 4216, ".read": 4217, "86": 4218, "\u0120center": 4219, "\u0120Initial": 4220, "\u0120language": 4221, "length": 4222, "xy": 4223, "\u0120sn": 4224, "\u0120inf": 4225, "Post": 4226, "\u0120ago": 4227, "\u0120easy": 4228, "_code": 4229, "\u0120ANY": 4230, "_ch": 4231, "\u0120download": 4232, "(T": 4233, "aved": 4234, "\u00e2\u0122\u0135": 4235, "\u0120students": 4236, "\u0120fig": 4237, "light": 4238, "xx": 4239, "\u0120buffer": 4240, "\u0120Dep": 4241, "\u0120Math": 4242, "ITH": 4243, "\u0120vari": 4244, "\u0120due": 4245, "Factory": 4246, "\u0120por": 4247, "\u0120ep": 4248, "otype": 4249, "\u0120cannot": 4250, "\u0120white": 4251, "<int": 4252, "tern": 4253, "\u0120register": 4254, "\u0120pred": 4255, "clus": 4256, "_date": 4257, "\u0120/**": 4258, "\u0120auth": 4259, "\u0120[]\u010a": 4260, "\u0120period": 4261, "nown": 4262, "\u0120vot": 4263, "\u0120screen": 4264, "'d": 4265, "Types": 4266, "\u0120tmp": 4267, "\u00d0\u00b5\u00d0": 4268, "ural": 4269, "\u0120benef": 4270, "_y": 4271, "\u0120net": 4272, "\u0120States": 4273, "']['": 4274, "\u0120Ne": 4275, "\u0120NOT": 4276, "\u0120neg": 4277, "102": 4278, "\u0120common": 4279, "scope": 4280, "\u0120cred": 4281, "ges": 4282, "_TYPE": 4283, "\u0120suggest": 4284, "oom": 4285, ".\u010a\u010a\u010a": 4286, "\u0120accept": 4287, "\u0120random": 4288, "erm": 4289, "\u0120Vector": 4290, "with": 4291, "TER": 4292, "(str": 4293, "\u0120respons": 4294, "\u0120hit": 4295, ".Set": 4296, "grid": 4297, "ria": 4298, "\u0120click": 4299, "undle": 4300, "Case": 4301, "insert": 4302, "Utils": 4303, "\u0120\"\"\"": 4304, "\u0120implement": 4305, "atal": 4306, "tempt": 4307, "template": 4308, "ocr": 4309, "returns": 4310, "\u0120players": 4311, "users": 4312, "edef": 4313, "\u0120These": 4314, "\u0120among": 4315, "\u0120deb": 4316, "ha": 4317, ".getElement": 4318, "\u0120circ": 4319, "\u0120answer": 4320, "\u0120walk": 4321, "\u0120treat": 4322, "\u0120Ge": 4323, "\u0120Create": 4324, "\u0120age": 4325, "\u0120req": 4326, "OST": 4327, "angular": 4328, "\u00d1\u0131": 4329, "\u0120five": 4330, "53": 4331, "\u0120distributed": 4332, "\u0120friend": 4333, "TP": 4334, "\u0120clean": 4335, "ows": 4336, ".Controls": 4337, "dis": 4338, "\u0120words": 4339, ".io": 4340, "zy": 4341, "\u0120header": 4342, "\u0120Check": 4343, "\u00e2\u0122\u013bm": 4344, "just": 4345, "holder": 4346, "=\"<?": 4347, "\u0120GNU": 4348, "\u0120Col": 4349, "imest": 4350, "entic": 4351, "{\u010a\u010a": 4352, "\u0120tre": 4353, "last": 4354, "la": 4355, "\u0120York": 4356, "Lo": 4357, "\u0120discuss": 4358, "\u0120God": 4359, "\u0120issue": 4360, "rew": 4361, "Window": 4362, "\u0120land": 4363, "120": 4364, "\u0120stream": 4365, "\u0120Par": 4366, "\u0120quality": 4367, "Par": 4368, "_num": 4369, "54": 4370, "\u0120sal": 4371, "elves": 4372, "ORD": 4373, "(user": 4374, "\u0120works": 4375, "\u0120half": 4376, "enses": 4377, "vas": 4378, "\u0120police": 4379, "(\"/": 4380, "ua": 4381, "\u0120simple": 4382, "Address": 4383, "\u0120empty": 4384, "esh": 4385, "128": 4386, "Update": 4387, "\u0120Created": 4388, "('.": 4389, ").\u010a": 4390, "\u0120\u0120\u0120\u0120\u0120\u0120\u0120\u0120\u0120\u0120\u0120\u0120\u0120\u0120\u0120\u0120\u0120\u0120": 4391, "\u0120agre": 4392, "\u0120FROM": 4393, "\u0120cook": 4394, "\u0120everything": 4395, "ilities": 4396, ".status": 4397, "\u0120relations": 4398, "extern": 4399, "\u0120nothing": 4400, "\u0120running": 4401, "\u0109void": 4402, "RI": 4403, "_a": 4404, "_CON": 4405, "por": 4406, ".sub": 4407, "require": 4408, "\u0120City": 4409, "\u0120West": 4410, "\u0120mor": 4411, "store": 4412, "Equals": 4413, "oder": 4414, "\u0120na": 4415, "\u0120[[": 4416, "\u0120('": 4417, "\u0120Don": 4418, "ERS": 4419, "/p": 4420, ".json": 4421, "abor": 4422, "\u0120someone": 4423, "_text": 4424, ".css": 4425, ".Tab": 4426, "\u0120Some": 4427, "ato": 4428, "double": 4429, "\u0120share": 4430, "(void": 4431, "_dir": 4432, "\u0120ur": 4433, "Stack": 4434, "\u0120World": 4435, ".X": 4436, "stract": 4437, "How": 4438, ".Generic": 4439, "icles": 4440, "\u0120entry": 4441, "\u0120changes": 4442, "\u0120personal": 4443, "(A": 4444, "\u0120offset": 4445, "_ptr": 4446, "\u0120pie": 4447, "\u0120Jan": 4448, "-group": 4449, "module": 4450, "Items": 4451, "\u0120However": 4452, "verage": 4453, ".Font": 4454, "\u0120events": 4455, ".min": 4456, "\u0120invol": 4457, "za": 4458, "\u0120whole": 4459, "\u0120needed": 4460, "\u0120likely": 4461, "rief": 4462, "ORM": 4463, "version": 4464, "\u0120fight": 4465, "\u0120ein": 4466, "Frame": 4467, "197": 4468, "gen": 4469, "\u0120Out": 4470, "avigation": 4471, "Length": 4472, "illed": 4473, "quence": 4474, "\u0120!==": 4475, "\u0120Software": 4476, "\u0120writing": 4477, "\u0120rate": 4478, "'],\u010a": 4479, "Panel": 4480, "inner": 4481, "\u0120[\"": 4482, "\u0120tw": 4483, "cd": 4484, "\u0120;\u010a": 4485, "_state": 4486, "\u0120Sm": 4487, "\u0120Mark": 4488, "))\u010a\u010a": 4489, "prot": 4490, "\u0120Mr": 4491, "method": 4492, "ustomer": 4493, "Icon": 4494, "\u0120correct": 4495, "(object": 4496, "\u0120More": 4497, "\u0120fall": 4498, "\u0120vol": 4499, "\u0120development": 4500, "ently": 4501, "\u0120si": 4502, "medi": 4503, "ving": 4504, "PP": 4505, "aker": 4506, "\u0120indu": 4507, "\u0120elif": 4508, "\u0120pret": 4509, "\u0120believe": 4510, "ns": 4511, "omet": 4512, "123": 4513, "\u0120Intern": 4514, "Rect": 4515, "So": 4516, ".error": 4517, "Read": 4518, "\u0120features": 4519, "\u0120minutes": 4520, "---": 4521, "asing": 4522, "cret": 4523, "\">\u010d\u010a": 4524, ".annot": 4525, "\u0120collection": 4526, "'.": 4527, "\u0120similar": 4528, "\u0120taken": 4529, "(\"%": 4530, "Order": 4531, "']\u010a": 4532, "-md": 4533, "\u0120TH": 4534, "aced": 4535, "\u0120isn": 4536, "/j": 4537, "\u0120son": 4538, "graph": 4539, "\u0120Integer": 4540, "\u0120necess": 4541, "reen": 4542, "\u0120um": 4543, "\u0120\\<": 4544, "\u0120moment": 4545, "\u0120bring": 4546, "\u0120indic": 4547, "ysis": 4548, "Level": 4549, "verse": 4550, "urrenc": 4551, "_test": 4552, "\u0120entire": 4553, "Down": 4554, "\u0120}\u010a\u010a\u010a": 4555, "(result": 4556, "\u0120Read": 4557, "\u00c3\u00a8": 4558, "Mod": 4559, "\u0120trying": 4560, "\"),\u010a": 4561, "\u0120member": 4562, "\u0120Cor": 4563, "ODO": 4564, "-control": 4565, "untime": 4566, "\u0120Sim": 4567, "Dialog": 4568, "plot": 4569, "_on": 4570, "\u0120phys": 4571, "}/": 4572, "\u0120namespace": 4573, "\u0109\u010d\u010a": 4574, "acc": 4575, "Player": 4576, "ARE": 4577, "89": 4578, "\u0120foot": 4579, "\u0120board": 4580, "part": 4581, "\u0120sus": 4582, "wise": 4583, "\u0120Mc": 4584, "\u0120push": 4585, "ATA": 4586, "\u0120please": 4587, "ried": 4588, "weet": 4589, "bit": 4590, "ided": 4591, "VE": 4592, "\u0120Sw": 4593, "UB": 4594, "\u0120types": 4595, "edia": 4596, "\u0120clos": 4597, "acebook": 4598, "When": 4599, "\u0120edit": 4600, "igger": 4601, "\u0120energ": 4602, "Container": 4603, "\u0120phot": 4604, "\u0120Count": 4605, "\u0120Europe": 4606, ".Is": 4607, "\u0120Russ": 4608, "peed": 4609, "\u0120Str": 4610, "\u0120py": 4611, "\u0120cult": 4612, "\u0120defined": 4613, "ccount": 4614, "\u0120obt": 4615, ".Location": 4616, "\u0120thread": 4617, "ille": 4618, "\u0120instead": 4619, "strong": 4620, "\u0120Sec": 4621, "URE": 4622, "\u0120idea": 4623, ".se": 4624, "emy": 4625, "selected": 4626, "Connection": 4627, "acing": 4628, "thread": 4629, ".next": 4630, "\u0120coll": 4631, "\u0120film": 4632, "istic": 4633, "\u0120compet": 4634, "\u0120conn": 4635, "though": 4636, "\u0120compan": 4637, "ocket": 4638, "\u0120teach": 4639, "=(": 4640, "\u0120phone": 4641, "\u0120active": 4642, "79": 4643, "delete": 4644, "101": 4645, "tries": 4646, "\u0120mo": 4647, "\u0120death": 4648, "});\u010a\u010a": 4649, "ocol": 4650, "Widget": 4651, "\u0120article": 4652, "rodu": 4653, "andid": 4654, "\u00d1\u012d": 4655, "\u0120Cr": 4656, "ka": 4657, "():": 4658, "lood": 4659, "\u0109\u0109\u0109\u010a": 4660, "\u0120almost": 4661, "\u0120sell": 4662, "ervlet": 4663, "rip": 4664, "Unit": 4665, "\u0120applic": 4666, "\u0120connect": 4667, "\u0120feature": 4668, "\u0120via": 4669, "'),": 4670, "\u0120lim": 4671, "\u0120\u0120\u0120\u0120\u0120\u0120\u0120\u0120\u0120\u0120\u0120\u0120\u0120\u0120\u0120\u0120\u0120\u0120\u0120\u0120\u0120\u0120\u0120\u0120\u0120\u0120\u0120\u0120\u0120\u0120\u0120\u0120\u0120\u0120\u0120\u0120\u0120\u0120\u0120\u0120\u0120\u0120\u0120\u0120\u0120\u0120\u0120": 4672, "\u0120Gu": 4673, "Engine": 4674, "\u0120ens": 4675, "\u0120environment": 4676, "block": 4677, "HERE": 4678, "NULL": 4679, "gy": 4680, "tag": 4681, ")).": 4682, "exp": 4683, "\u0120compl": 4684, "\u0120install": 4685, "\u0120complete": 4686, "queue": 4687, "atural": 4688, "\u0120general": 4689, "thon": 4690, "\u0120asked": 4691, "ores": 4692, "(res": 4693, "\u0120reserved": 4694, "SP": 4695, "\u0120\u00e2\u0122\u00a6": 4696, "\u00c5\u0124": 4697, "\u0120signific": 4698, "Off": 4699, "\u0120\u0120\u0120\u0120\u0120\u0120\u0120\u0120\u0120\u0120\u0120\u0120\u0120\u0120\u0120\u0120\u0120\u0120\u0120\u0120\u0120\u0120\u0120\u0120\u0120\u0120\u0120\u0120\u0120": 4700, "\u0120Ag": 4701, "\u0120Just": 4702, "\u0120Error": 4703, "\u0120infl": 4704, "adata": 4705, "\u0120icon": 4706, "asks": 4707, "''": 4708, "_LO": 4709, "?.": 4710, "account": 4711, "\u0120(*": 4712, "')\u010a\u010a": 4713, "rap": 4714, "_var": 4715, "\u0120FOR": 4716, "\u0120party": 4717, "\u0120Your": 4718, "cat": 4719, "stry": 4720, ".new": 4721, "boot": 4722, "\u0120Nov": 4723, "\u0120vector": 4724, "\u0120normal": 4725, "\u0120further": 4726, "Repository": 4727, "800": 4728, "\u0120database": 4729, "attle": 4730, "\u0120music": 4731, "\u0120speed": 4732, "\u0120doc": 4733, "process": 4734, "IGHT": 4735, ".parse": 4736, "\u0120taking": 4737, "\u0120viol": 4738, "ceed": 4739, "\u0120After": 4740, "\u0120forward": 4741, "\u0120crit": 4742, "\"/>\u010a": 4743, "rot": 4744, "\u0120failed": 4745, "efore": 4746, "\u0120concern": 4747, "oe": 4748, "ba": 4749, "\u0120sender": 4750, "\u0120term": 4751, "has": 4752, "=\"#": 4753, "\u0120potential": 4754, "Num": 4755, "\u0120published": 4756, ".close": 4757, "\u0120Image": 4758, "straint": 4759, "UD": 4760, "\u0120Ob": 4761, "\u0120probably": 4762, "lim": 4763, "\":\u010a": 4764, "olume": 4765, "\u0120consum": 4766, "76": 4767, "ague": 4768, "ensions": 4769, "\u0120investig": 4770, "-year": 4771, "');": 4772, "-sm": 4773, "\u0120enjoy": 4774, "orig": 4775, "ering": 4776, "cp": 4777, "leased": 4778, "plements": 4779, "\u0120returns": 4780, "pat": 4781, "BO": 4782, "\u0120House": 4783, ".Label": 4784, "\u0120weight": 4785, "ighb": 4786, "\u0120conditions": 4787, "\u0120exception": 4788, "description": 4789, "\u0120trad": 4790, "-to": 4791, "\u0120{}": 4792, "\u0120module": 4793, "END": 4794, ".ap": 4795, ".props": 4796, "\u0120constructor": 4797, "aves": 4798, "\u0120favor": 4799, "\u0120Now": 4800, ";i": 4801, "\u0120Main": 4802, "_k": 4803, "eries": 4804, "\u00e2\u0122\u013bll": 4805, "transform": 4806, "imestamp": 4807, "Pre": 4808, "\u0120mer": 4809, ".res": 4810, "stant": 4811, "Location": 4812, "_NAME": 4813, "\u0120loss": 4814, "\u0120\u010a\u010a": 4815, "net": 4816, "\u0120engine": 4817, "Block": 4818, "\u0120issues": 4819, "\u0120parse": 4820, "\u0120Bar": 4821, "\u0120stay": 4822, "\u0120JSON": 4823, "\u0120dom": 4824, "airs": 4825, "wner": 4826, "\u0120lower": 4827, "\",\u010d\u010a": 4828, "\u0120Dem": 4829, "ufact": 4830, "\u0120ps": 4831, "\u0120perfect": 4832, "RL": 4833, "\u0120educ": 4834, "ls": 4835, "emory": 4836, "ARRANT": 4837, "uge": 4838, "\u0120exact": 4839, ".key": 4840, "alled": 4841, "ech": 4842, "ief": 4843, "\\/": 4844, "oke": 4845, "\u0120former": 4846, "alloc": 4847, "\u0120six": 4848, "ida": 4849, "\u0120margin": 4850, "\u0120heart": 4851, "ald": 4852, "pack": 4853, ".getElementById": 4854, "\u0120WARRANT": 4855, "\u0120rather": 4856, "\u0120building": 4857, "erman": 4858, "lice": 4859, "\u0120questions": 4860, "izes": 4861, "lege": 4862, "irectory": 4863, "\u0120je": 4864, "\u0120cas": 4865, "props": 4866, "utf": 4867, "\u0120security": 4868, "\u0120however": 4869, "weight": 4870, "\u0120inside": 4871, "\u0120president": 4872, "Char": 4873, "\u0120WITH": 4874, ".map": 4875, "\u0120graph": 4876, "\u0120tag": 4877, "_status": 4878, "\u0120attempt": 4879, "opp": 4880, "uses": 4881, "\u0109const": 4882, "\u0120round": 4883, ",$": 4884, "\u0120friends": 4885, "Email": 4886, "?>": 4887, "Resource": 4888, "KEY": 4889, "osp": 4890, ".query": 4891, "\u0120North": 4892, "ables": 4893, "istrib": 4894, "_class": 4895, "ello": 4896, "That": 4897, "\u00d0\u00ba": 4898, "pecially": 4899, "\u0120President": 4900, "\u0120campaign": 4901, "\u0120alt": 4902, "area": 4903, "\u0120chall": 4904, "\u0120opport": 4905, ".Con": 4906, "\u0120energy": 4907, "like": 4908, ".string": 4909, "ington": 4910, ")*": 4911, "yy": 4912, "\u0120profession": 4913, "irth": 4914, "\u0120seg": 4915, "\u00e6\u013e": 4916, "\u0120hor": 4917, "iers": 4918, "can": 4919, "\u0120behind": 4920, "Product": 4921, "fg": 4922, "\u0120Sk": 4923, ".jpg": 4924, "?:": 4925, "];\u010a\u010a": 4926, "\u0120callback": 4927, "\u0120Http": 4928, "\u00d1\u012e": 4929, "long": 4930, "MS": 4931, "ATH": 4932, "\u0120raise": 4933, "\u0120wanted": 4934, "rown": 4935, "utor": 4936, "lt": 4937, "]=": 4938, "eline": 4939, "MA": 4940, "\u0120separ": 4941, "cs": 4942, "semb": 4943, "Dis": 4944, "bserv": 4945, "\u0120Will": 4946, "\u0120policy": 4947, "\u0120third": 4948, "phone": 4949, "\u0120bed": 4950, "/g": 4951, ".__": 4952, "\u0120Inc": 4953, "izing": 4954, ".remove": 4955, "instance": 4956, ".type": 4957, "\u0120serv": 4958, "Each": 4959, "\u0120har": 4960, "\u0120Message": 4961, "(key": 4962, "SELECT": 4963, "Pos": 4964, "));\u010d\u010a": 4965, "\u0120recomm": 4966, "\u0120training": 4967, "\u0120Ent": 4968, "\u0120Char": 4969, "icht": 4970, "(file": 4971, "\u0120prior": 4972, "Game": 4973, "\u0120exit": 4974, "Params": 4975, ".core": 4976, "PC": 4977, "nes": 4978, "anced": 4979, "(request": 4980, "Password": 4981, "}>\u010a": 4982, "\u0120mag": 4983, "\u0120release": 4984, "\u0120shall": 4985, "udent": 4986, "\u0120South": 4987, "ando": 4988, ":'": 4989, ".TabIndex": 4990, "sk": 4991, "anner": 4992, "isset": 4993, "\u0120outside": 4994, "ledge": 4995, "\u0120\u00e5": 4996, "\u0120Rob": 4997, "\u0120imm": 4998, "!\u010a": 4999, "\u0120Web": 5000, "Des": 5001, "BC": 5002, "ancial": 5003, "Route": 5004, "Dec": 5005, "ferences": 5006, "\u0120purch": 5007, "\u0120Model": 5008, "ctor": 5009, "gn": 5010, "_start": 5011, "_un": 5012, ".*": 5013, "ises": 5014, "\u0120ground": 5015, "\u0120unique": 5016, "\u0120beaut": 5017, "{\"": 5018, "\u0120pour": 5019, "\u0120Oct": 5020, "\u0120tree": 5021, "sets": 5022, "_res": 5023, "')->": 5024, "_reg": 5025, "(\"\\": 5026, "\u0120byte": 5027, "Bl": 5028, "\u0120dating": 5029, "\u0120matter": 5030, "\u0120Rem": 5031, "\u0120'../": 5032, "\u0120Aug": 5033, "\u0120La": 5034, "\u0120$(": 5035, "ournal": 5036, "111": 5037, "iam": 5038, "\u0120shows": 5039, "write": 5040, "\u0120ball": 5041, "\u0120simply": 5042, "\u0120fast": 5043, "\u0120memory": 5044, "ASS": 5045, "\u0120Of": 5046, "oved": 5047, "ante": 5048, "aul": 5049, "istry": 5050, ")));\u010a": 5051, "\u0120fit": 5052, "<string": 5053, "\u0120political": 5054, "ancel": 5055, "_.": 5056, "card": 5057, ".current": 5058, "och": 5059, "_image": 5060, "\\t": 5061, "#\u010a": 5062, "(L": 5063, "\u0120industry": 5064, "coming": 5065, "\u0120extra": 5066, "600": 5067, "\u0120reported": 5068, ".start": 5069, "\u0120resources": 5070, "\u0120img": 5071, "flow": 5072, "_EX": 5073, "(null": 5074, "\u0120Pre": 5075, "\u0120wrong": 5076, "interface": 5077, "Parameter": 5078, "ners": 5079, "\u00e1\u00bb": 5080, "ture": 5081, "ersist": 5082, "ountry": 5083, "\u0120seems": 5084, "alance": 5085, "dest": 5086, "\u0109String": 5087, "\u0120maint": 5088, "\u0120unit": 5089, "acters": 5090, "\u0120TR": 5091, "iful": 5092, "exports": 5093, "project": 5094, "Application": 5095, "legate": 5096, "\u0120takes": 5097, "term": 5098, "\u0120etc": 5099, "uster": 5100, "\u0120appear": 5101, "address": 5102, "\u0120fem": 5103, "hs": 5104, "\u0120hom": 5105, ",-": 5106, "\u0120difficult": 5107, "\u0120coming": 5108, "Open": 5109, "\u0120settings": 5110, "\u0120War": 5111, "\u0120Then": 5112, "\u0120autom": 5113, "\u0120Foundation": 5114, "\u0120quite": 5115, "Description": 5116, "\u0120blog": 5117, "iqu": 5118, "PS": 5119, "110": 5120, "_field": 5121, "Json": 5122, "SSION": 5123, "\u0120Sch": 5124, "\u0120LO": 5125, "\u0120descri": 5126, "\u0120everyone": 5127, "\u0120pretty": 5128, "\u0120longer": 5129, "\u0120menu": 5130, "\u0120currently": 5131, "sec": 5132, "\u0120relationship": 5133, "################################": 5134, "\u0120Map": 5135, "aset": 5136, "\u0120parameters": 5137, "\u0120crush": 5138, "\"\u010d\u010a": 5139, "ILITY": 5140, "igration": 5141, "\u0120cout": 5142, "total": 5143, "\u0120names": 5144, "ndef": 5145, "\");": 5146, "riend": 5147, "ynamic": 5148, "\u0120effort": 5149, "\u0120actual": 5150, "\u0120fields": 5151, "OUN": 5152, "ters": 5153, "250": 5154, "\u0120fix": 5155, "_model": 5156, "\u0120cases": 5157, "CA": 5158, "My": 5159, "Interface": 5160, "\u0120SE": 5161, "196": 5162, "]]": 5163, "alle": 5164, "\u0120National": 5165, "\u0120ArrayList": 5166, "inline": 5167, ".V": 5168, "ara": 5169, "refix": 5170, "asc": 5171, "Reader": 5172, "\u0120\u00d0\u00bf": 5173, "astic": 5174, "(()": 5175, "Cl": 5176, ".annotation": 5177, "\u0120performance": 5178, "aily": 5179, ".toString": 5180, ".net": 5181, "views": 5182, ".end": 5183, "ayers": 5184, "late": 5185, "\u0120Apr": 5186, "ederal": 5187, "'])": 5188, ".body": 5189, "\u0120higher": 5190, "_fl": 5191, "cr": 5192, "alert": 5193, "_node": 5194, "\u0120Google": 5195, "\u0120itself": 5196, "Auth": 5197, "urrency": 5198, "\u0120significant": 5199, "append": 5200, "\u0120respect": 5201, "strap": 5202, "\u0120una": 5203, "riteria": 5204, "PORT": 5205, ".apache": 5206, "Output": 5207, "\u0120progress": 5208, "\u0120mid": 5209, "\u0120Microsoft": 5210, "\u0120resource": 5211, "ablish": 5212, "\u0120dim": 5213, ".load": 5214, ".App": 5215, "\u0120direction": 5216, "\u0120additional": 5217, "\u0120\u0120\u0120\u0120\u0120\u0120\u0120\u0120\u0120\u0120\u0120\u0120\u0120\u0120\u0120\u0120\u0120\u0120\u0120\u0120\u0120\u0120\u0120\u0120": 5218, "\u0120numbers": 5219, "\u0120companies": 5220, ".Th": 5221, "\u0120sound": 5222, "username": 5223, "\u0120statement": 5224, "\u0120alert": 5225, "\u0120contract": 5226, "home": 5227, "_length": 5228, ".Component": 5229, "ev": 5230, ".Ex": 5231, "\u00ef\u00bc\u013c": 5232, "\";": 5233, "\u0120High": 5234, "\u0120)\u010a\u010a": 5235, "\u0120Point": 5236, "oph": 5237, "\u0120lines": 5238, "->_": 5239, "\")\u010a\u010a": 5240, "ox": 5241, "application": 5242, "\u0120]\u010a": 5243, "\u010a\u010a\u010a\u010a\u010a\u010a": 5244, "180": 5245, "\u0120soon": 5246, "ctions": 5247, "inger": 5248, "\u0120join": 5249, "\u0120Pe": 5250, "\u0120\u00eb": 5251, "\u0120las": 5252, ".E": 5253, "css": 5254, "/or": 5255, "\u0120Start": 5256, "\u0120TO": 5257, "\u0120subs": 5258, "conn": 5259, "components": 5260, "DEBUG": 5261, "quare": 5262, "Function": 5263, "endar": 5264, ".index": 5265, "\u0120fill": 5266, "\u00c4\u013b": 5267, "\u0120choose": 5268, "how": 5269, "\u0120America": 5270, "assets": 5271, "------------": 5272, "\u0120Value": 5273, "\u0120office": 5274, "\u0120veh": 5275, "\u0120transform": 5276, "\u0120Art": 5277, "\u0120inde": 5278, "\u0120fn": 5279, "\u0120implements": 5280, "ango": 5281, "plete": 5282, "+\"": 5283, "tmp": 5284, "amily": 5285, "\u0120hash": 5286, "missions": 5287, "EST": 5288, "gt": 5289, "Provider": 5290, "\u0120\u0120\u0120\u0120\u0120\u0120\u0120\u0120\u0120\u0120\u0120\u0120\u0120\u0120\u0120\u0120\u0120\u0120\u0120\u0120\u0120\u0120": 5291, "\u0120flag": 5292, "\u0120particip": 5293, "den": 5294, "\u0120Returns": 5295, "\u0120note": 5296, "\u00c3\u00bcr": 5297, "pm": 5298, "ideos": 5299, "\u0120specified": 5300, "\u0120EN": 5301, "ester": 5302, "olid": 5303, "\u0120upon": 5304, "(std": 5305, "\u0109v": 5306, "\u0120'\\": 5307, "uz": 5308, "\u0120vert": 5309, "\u0120vict": 5310, "\u0109self": 5311, "\u0120\"$": 5312, "85": 5313, ".k": 5314, "\u0120groups": 5315, "github": 5316, "lang": 5317, "\u0120mut": 5318, "TO": 5319, "\u0120ve": 5320, "\u0120Please": 5321, ";\u010a\u010a\u010a": 5322, "access": 5323, "\u0120{\"": 5324, "rea": 5325, "\u0120risk": 5326, "icker": 5327, "oggle": 5328, "\u0109while": 5329, "ANG": 5330, ".send": 5331, "72": 5332, "\u0120woman": 5333, "\u0120gets": 5334, "\u0120ign": 5335, "\u0120Id": 5336, "_log": 5337, "ONE": 5338, "\u0120evid": 5339, "\u0120Har": 5340, "_sub": 5341, "\u0120endl": 5342, "\u0120included": 5343, "());\u010a\u010a": 5344, "\u0120Ap": 5345, "igr": 5346, "\u0120sem": 5347, "\u0120Black": 5348, "doc": 5349, "_table": 5350, "\u0120\u0120\u0120\u0120\u0120\u0120\u0120\u0120\u0120\u0120\u0120\u0120\u0120\u0120\u0120\u0120\u0120\u0120\u0120\u0120\u0120\u0120\u0120\u0120\u0120\u0120\u0120\u0120\u0120\u0120\u0120\u0120\u0120\u0120\u0120\u0120\u0120\u0120\u0120\u0120\u0120\u0120\u0120\u0120\u0120\u0120\u0120\u0120\u0120\u0120\u0120\u0120\u0120\u0120\u0120\u0120\u0120\u0120\u0120\u0120\u0120\u0120\u0120\u0120": 5351, "-up": 5352, "\u0120cause": 5353, "\u0120..": 5354, "\u0120van": 5355, "_dict": 5356, "\u0120focus": 5357, "IND": 5358, "CESS": 5359, ".Log": 5360, "\u0120multiple": 5361, "ido": 5362, "\u0120regard": 5363, "-M": 5364, "andler": 5365, "ourse": 5366, "\u0120deg": 5367, ".U": 5368, "\u0120addition": 5369, "\u0120various": 5370, "\u0120receive": 5371, "\u00d0\u00b5\u00d0\u00bd": 5372, "\u0120HT": 5373, "Obj": 5374, "DF": 5375, "\u0120increase": 5376, "\u0120Open": 5377, "];": 5378, "\u0120commit": 5379, "?\u010a": 5380, "ategories": 5381, "atory": 5382, "ship": 5383, "\u0120Mich": 5384, "\u0120html": 5385, "romise": 5386, "\u0120leave": 5387, "\u0120strateg": 5388, "aven": 5389, "\u0120Console": 5390, "known": 5391, "-n": 5392, "_LE": 5393, ".component": 5394, "\u0120bre": 5395, "Session": 5396, "iance": 5397, "\u0120align": 5398, "typedef": 5399, "_result": 5400, "\u0120WHERE": 5401, ".split": 5402, "\u0120reading": 5403, "FAULT": 5404, "\u0120clo": 5405, "\u0120notice": 5406, "_pr": 5407, "arter": 5408, "\u0120lock": 5409, "\u0120standard": 5410, "etic": 5411, "ellow": 5412, "\u0120padding": 5413, "\u0120His": 5414, "\u0120states": 5415, "_cast": 5416, "(P": 5417, "aa": 5418, "\u0120internal": 5419, "ean": 5420, "\u0120PRO": 5421, "\u0120Key": 5422, "\u0120especially": 5423, "ming": 5424, "\u0120cross": 5425, "\u0120national": 5426, "_object": 5427, "filter": 5428, "\u0120script": 5429, ".update": 5430, "_i": 5431, "\u0120Assert": 5432, "/core": 5433, "%%%%": 5434, "\u0120problems": 5435, "istor": 5436, "\u0120.=": 5437, "\u0120arch": 5438, "\u0120written": 5439, "\u0120milit": 5440, "MENT": 5441, ".ch": 5442, "cape": 5443, "\u0120Mus": 5444, "_config": 5445, "\u0120API": 5446, "foot": 5447, "\u0120images": 5448, "endl": 5449, ".In": 5450, "First": 5451, "\u0120platform": 5452, ".prot": 5453, "Option": 5454, "ste": 5455, "\u0120TODO": 5456, "\u0120force": 5457, ".cont": 5458, "\u0109echo": 5459, "\u0120Dav": 5460, "Ptr": 5461, "(B": 5462, "RT": 5463, "\u0120Base": 5464, "]['": 5465, "\u0120announc": 5466, "console": 5467, "\u0120Py": 5468, "ds": 5469, ".as": 5470, "\u0120prevent": 5471, "apan": 5472, "\u0120{'": 5473, "}</": 5474, "\u0120Service": 5475, "\u0120Sen": 5476, "ador": 5477, "profile": 5478, "Top": 5479, "\u0120iter": 5480, "po": 5481, "IES": 5482, "JSON": 5483, "IE": 5484, "iant": 5485, "\u00e3\u0122\u0123": 5486, "_j": 5487, "\u0120Sept": 5488, "_map": 5489, "bum": 5490, "(context": 5491, "\u0120Home": 5492, "ians": 5493, "GB": 5494, "63": 5495, "\u0120living": 5496, "\u0120pattern": 5497, "(input": 5498, "icient": 5499, "999": 5500, "Core": 5501, "\u0120entity": 5502, "\u0120integ": 5503, "Changed": 5504, "\u0120useful": 5505, ".info": 5506, "\u0120tool": 5507, "(item": 5508, "\u0120ok": 5509, "\u0120feed": 5510, "IX": 5511, "\u00c3\u00a9s": 5512, "\u0120News": 5513, "remove": 5514, "erry": 5515, "\u0109\u0109\u0109\u0109\u0109\u0109\u0109\u0109\u0109": 5516, "ipment": 5517, "ares": 5518, "Do": 5519, "Current": 5520, ".content": 5521, ".Group": 5522, "ustral": 5523, "\u0120\u00d1\u0123": 5524, "})": 5525, "\u0120popular": 5526, "\u0120stre": 5527, "\u0120methods": 5528, "_ERROR": 5529, "Left": 5530, "cal": 5531, "bsp": 5532, ".ToString": 5533, "\u0120dir": 5534, "\u0120allowed": 5535, "\u0120impact": 5536, "\")]\u010a": 5537, "62": 5538, ".config": 5539, "\u0120elements": 5540, "\u0120prote": 5541, "\u0120train": 5542, ".tr": 5543, "rs": 5544, "\u0120Republic": 5545, "\u0120Task": 5546, "61": 5547, "aries": 5548, "(D": 5549, "(get": 5550, "\u00e2\u0122\u00a6\u010a\u010a": 5551, "\u0120related": 5552, "\u0120vers": 5553, "\u0120sil": 5554, "\u0120\"\";\u010a": 5555, "\u0120cmd": 5556, "\u0120technology": 5557, ".width": 5558, "Float": 5559, "\u0120Use": 5560, "Body": 5561, "should": 5562, ".join": 5563, "Font": 5564, "llum": 5565, "ycle": 5566, "\u0120Brit": 5567, "\u0120mit": 5568, "\u0120scale": 5569, "\u0120(_": 5570, "ernel": 5571, "\"))\u010a": 5572, "\u0120score": 5573, "/v": 5574, "\u0120student": 5575, "UC": 5576, ".show": 5577, "\u0120average": 5578, "Enabled": 5579, "(ex": 5580, "common": 5581, "imation": 5582, ":@\"": 5583, "chie": 5584, "\u0120...\u010a\u010a": 5585, "river": 5586, "\u0120March": 5587, "category": 5588, "fin": 5589, "\u0120court": 5590, "\u00d0\u00b2": 5591, "Server": 5592, "\u0120container": 5593, "-st": 5594, "_for": 5595, "\u0120parts": 5596, "\u0120decision": 5597, "obs": 5598, "oub": 5599, "mitted": 5600, "\u0120$('#": 5601, "\u0120saw": 5602, "\u0120approach": 5603, "ICE": 5604, "\u0120saying": 5605, "\u0120anyone": 5606, "meta": 5607, "SD": 5608, "\u0120song": 5609, "display": 5610, "Oper": 5611, "outes": 5612, "\u0120channel": 5613, "\u0120changed": 5614, "\u00c3\u00aa": 5615, "\u0120finally": 5616, "_number": 5617, "Please": 5618, "\u00e0\u00a4": 5619, "oring": 5620, "-re": 5621, "\u0120kill": 5622, "\u0120drug": 5623, "window": 5624, "\u0120convert": 5625, "ombre": 5626, "\u0120ways": 5627, "Helper": 5628, "\u0120First": 5629, "(__": 5630, "urity": 5631, "\u0120Windows": 5632, "ees": 5633, "\u0120mat": 5634, "rapper": 5635, "\u0120plus": 5636, "anges": 5637, "\"].": 5638, "azon": 5639, "/t": 5640, "lat": 5641, "aste": 5642, "\u0120profile": 5643, "\u0120ready": 5644, "#ifndef": 5645, "rote": 5646, "\u0120sense": 5647, "Gener": 5648, "\u0120Config": 5649, "omy": 5650, "\u0120June": 5651, "\u0120latest": 5652, "\u0120saf": 5653, "\u0120region": 5654, "\u0120deep": 5655, "witch": 5656, "\u0120Park": 5657, "}`": 5658, "\u0120From": 5659, "II": 5660, "\u0120cv": 5661, "\u0120reach": 5662, "\u0120counter": 5663, "\u0120Work": 5664, "\u0120URL": 5665, "\u0120Update": 5666, "',\u010d\u010a": 5667, "\u0120immedi": 5668, "close": 5669, "ados": 5670, "ferred": 5671, "\u0120weeks": 5672, "urg": 5673, "\u0120damage": 5674, "\u0120lost": 5675, "ani": 5676, "_lo": 5677, "\u0120himself": 5678, "\u0120dog": 5679, ")]\u010a": 5680, "\u00ef\u00bf": 5681, "pir": 5682, "tt": 5683, "\u0120paper": 5684, "\u0120thems": 5685, "second": 5686, "\u0120staff": 5687, "\u0120Input": 5688, "\"+": 5689, "\u0120Facebook": 5690, "\u0120alloc": 5691, "\u0120sched": 5692, "ACE": 5693, "\u0120themselves": 5694, "\u0120Component": 5695, "\u0120driver": 5696, "ja": 5697, "(path": 5698, "\u0120category": 5699, "alls": 5700, "pu": 5701, "lluminate": 5702, "\u0120Action": 5703, ".button": 5704, "\u0120GL": 5705, "istics": 5706, "\u0120oil": 5707, "\u0120stock": 5708, ">'": 5709, "\u0120dead": 5710, "VAL": 5711, "QUE": 5712, "************************************************************************": 5713, "\u0120charg": 5714, "Return": 5715, "\u0120ful": 5716, "dom": 5717, "\u0120rules": 5718, "\u0120modify": 5719, "\u0120eval": 5720, "ham": 5721, "atement": 5722, "\\<": 5723, "ula": 5724, "=False": 5725, "RA": 5726, "\u0120contains": 5727, "74": 5728, "\u0120stack": 5729, "mar": 5730, "\u0120{}\u010a": 5731, "\u0120undefined": 5732, "Ass": 5733, "\u0120China": 5734, "vey": 5735, "*\u010a": 5736, "\u0120playing": 5737, ")/": 5738, "actor": 5739, "\u0120bottom": 5740, "lier": 5741, "\u0120Number": 5742, "\u0120couple": 5743, "DC": 5744, "\u0120SO": 5745, "gor": 5746, ".setText": 5747, "success": 5748, "command": 5749, "Filter": 5750, "\u0120Our": 5751, "_item": 5752, "\u0120ctx": 5753, "\u0120road": 5754, "Version": 5755, "case": 5756, "urt": 5757, "avior": 5758, "ych": 5759, "sembly": 5760, "\u0120Product": 5761, "\u0120held": 5762, "afe": 5763, "\u0120includes": 5764, "<quote": 5765, "\u0120avoid": 5766, "\u0120Fin": 5767, "\u0120Mod": 5768, "\u0120tab": 5769, "ano": 5770, "\u00c3\u00b1": 5771, "ipping": 5772, "-e": 5773, "\u0120insert": 5774, "target": 5775, "chan": 5776, ".Model": 5777, "IME": 5778, "\\\u010a": 5779, "\u0120machine": 5780, "avy": 5781, "\u0120NO": 5782, "\u0120Inter": 5783, "\u0120operation": 5784, "modal": 5785, "Tag": 5786, "]:": 5787, "\u0120production": 5788, "\u0120areas": 5789, "\u0120ren": 5790, "_from": 5791, "nbsp": 5792, "\u0120operator": 5793, "men": 5794, "apped": 5795, "_per": 5796, "zen": 5797, "(\".": 5798, ".save": 5799, "=\"{{": 5800, "\u0120tor": 5801, "(response": 5802, "\u0120candid": 5803, "\u0120conv": 5804, "ailed": 5805, "\u0120Lib": 5806, "comp": 5807, "ura": 5808, "\u00ef\u00bf\u00bd": 5809, "\u0120Here": 5810, "\u0120argument": 5811, "hood": 5812, "\u0120establish": 5813, "ography": 5814, "\u0120onClick": 5815, "ambda": 5816, "\u0120sch": 5817, "\u0120movie": 5818, "\u0120sec": 5819, "\u0120activity": 5820, "\u00d8\u00a7": 5821, "\u0120sql": 5822, "_all": 5823, "incip": 5824, "\u0120provides": 5825, "\u0120sys": 5826, "acket": 5827, "\u0120wasn": 5828, "\u0120uses": 5829, "\u0120Function": 5830, ".google": 5831, "\u0120Result": 5832, "84": 5833, "Visible": 5834, "agma": 5835, "elcome": 5836, "\u0120Sy": 5837, "\u0120Cent": 5838, "ALSE": 5839, "aci\u00c3\u00b3n": 5840, "EXT": 5841, "\u0120license": 5842, "\u0120Long": 5843, "\u0120accom": 5844, "\u0120ability": 5845, ".height": 5846, "Active": 5847, "ological": 5848, "oly": 5849, ")),": 5850, ".Se": 5851, "\u0120parameter": 5852, "prite": 5853, "ABILITY": 5854, ".service": 5855, "\u0120Group": 5856, "_query": 5857, "\u0120Item": 5858, "ining": 5859, "\u0120jud": 5860, "ims": 5861, "fix": 5862, "inder": 5863, "agram": 5864, "\u0120functions": 5865, "\u0120experi": 5866, "\u0120Em": 5867, "\u0120rot": 5868, "\u0120pen": 5869, ".btn": 5870, "\u0120AS": 5871, "#ifdef": 5872, "\u0120choice": 5873, "\u0120Page": 5874, "_PRO": 5875, "QU": 5876, "\u00e5\u0131": 5877, "antity": 5878, "\u00c2\u0143": 5879, "words": 5880, "\u0120readonly": 5881, "\u0120flex": 5882, "protected": 5883, "\u0120Any": 5884, "\u0120characters": 5885, "enced": 5886, "\u0120July": 5887, "iler": 5888, "Card": 5889, "urance": 5890, "\u0120rev": 5891, ".event": 5892, "aly": 5893, "130": 5894, "\u0120wonder": 5895, "\u0120Port": 5896, "\u0120legal": 5897, "role": 5898, "\u0120ten": 5899, "\u0120goes": 5900, "MP": 5901, "white": 5902, "):\u010d\u010a": 5903, "))\u010d\u010a": 5904, "\u0120reference": 5905, "\u0120mis": 5906, "\u0120Project": 5907, "icks": 5908, ">&": 5909, "CON": 5910, "\u0120repl": 5911, "\u0120regular": 5912, "Storage": 5913, "ramework": 5914, "\u0120goal": 5915, "\u0120touch": 5916, ".widget": 5917, "\u0120built": 5918, "des": 5919, "Part": 5920, "(re": 5921, "\u0120worth": 5922, "hib": 5923, "game": 5924, "91": 5925, "192": 5926, "\u0120\u00d0\u00b2": 5927, "acion": 5928, "\u0120White": 5929, "(type": 5930, "(`": 5931, "81": 5932, "\u0120natural": 5933, "\u0120inj": 5934, "\u0120calcul": 5935, "\u0120April": 5936, ".List": 5937, "\u0120associated": 5938, "\u0109System": 5939, "~~": 5940, "=[": 5941, "\u0120storage": 5942, "\u0120bytes": 5943, "\u0120travel": 5944, "\u0120sou": 5945, "\u0120passed": 5946, "!=": 5947, "ascript": 5948, ".open": 5949, "\u0120grid": 5950, "\u0120bus": 5951, "\u0120recogn": 5952, "Ab": 5953, "\u0120hon": 5954, "\u0120Center": 5955, "\u0120prec": 5956, "build": 5957, "73": 5958, "HTML": 5959, "\u0120San": 5960, "\u0120countries": 5961, "aled": 5962, "token": 5963, "kt": 5964, "\u0120qual": 5965, "Last": 5966, "adow": 5967, "\u0120manufact": 5968, "idad": 5969, "jango": 5970, "Next": 5971, "xf": 5972, ".a": 5973, "\u0120porno": 5974, "\u0120PM": 5975, "erve": 5976, "iting": 5977, "_th": 5978, "ci": 5979, "=None": 5980, "gs": 5981, "\u0120login": 5982, "atives": 5983, "']);\u010a": 5984, "\u00c4\u0127": 5985, "\u0120ill": 5986, "IA": 5987, "children": 5988, "DO": 5989, "\u0120levels": 5990, "\u0120{{": 5991, "\u0120looks": 5992, "\u0120\"#": 5993, "ToString": 5994, "\u0120necessary": 5995, "\u0120\u0120\u0120\u010a": 5996, "cell": 5997, "Entry": 5998, "\u0120'#": 5999, "\u0120extrem": 6000, "Selector": 6001, "\u0120placeholder": 6002, "Load": 6003, "\u0120released": 6004, "ORE": 6005, "Enumer": 6006, "\u0120TV": 6007, "SET": 6008, "inq": 6009, "Press": 6010, "\u0120Department": 6011, "\u0120properties": 6012, "\u0120respond": 6013, "Search": 6014, "ael": 6015, "\u0120requ": 6016, "\u0120Book": 6017, "/\u010a": 6018, "(st": 6019, "\u0120financial": 6020, "icket": 6021, "_input": 6022, "\u0120threat": 6023, "(in": 6024, "Strip": 6025, "\u00ec\u013f": 6026, "\u00c3\u00a7\u00c3\u00a3o": 6027, "71": 6028, "\u0120evidence": 6029, "));": 6030, "\u0120Bro": 6031, "\u0120[];\u010a": 6032, "\u0120ou": 6033, "buf": 6034, "Script": 6035, "dat": 6036, "\u0120rule": 6037, "#import": 6038, "=\"/": 6039, "Serial": 6040, "\u0120starting": 6041, "[index": 6042, "ae": 6043, "\u0120contrib": 6044, "session": 6045, "_new": 6046, "utable": 6047, "ober": 6048, "\u0120\"./": 6049, "\u0120logger": 6050, "\u0120recently": 6051, "\u0120returned": 6052, "\u010d\u010d\u010a": 6053, ")))\u010a": 6054, "itions": 6055, "\u0120seek": 6056, "\u0120communic": 6057, "\u0120\".": 6058, "\u0120username": 6059, "ECT": 6060, "DS": 6061, "\u0120otherwise": 6062, "\u0120German": 6063, ".aw": 6064, "Adapter": 6065, "ixel": 6066, "\u0120systems": 6067, "\u0120drop": 6068, "83": 6069, "\u0120structure": 6070, "\u0120$(\"#": 6071, "encies": 6072, "anning": 6073, "\u0120Link": 6074, "\u0120Response": 6075, "\u0120stri": 6076, "\u00c5\u00bc": 6077, "\u0120DB": 6078, "\u00e6\u0139": 6079, "android": 6080, "submit": 6081, "otion": 6082, "92": 6083, "(@": 6084, ".test": 6085, "82": 6086, "\u010a\u010a\u010a\u010a\u010a\u010a\u010a\u010a": 6087, "];\u010d\u010a": 6088, "\u0120directly": 6089, "\u0120\"%": 6090, "ris": 6091, "elta": 6092, "AIL": 6093, "){\u010d\u010a": 6094, "mine": 6095, "\u0120\u0120\u0120\u0120\u0120\u0120\u0120\u0120\u0120\u0120\u0120\u0120\u0120\u0120\u0120\u0120\u0120\u0120\u0120\u0120\u0120\u0120\u0120\u0120\u0120\u0120": 6096, "(k": 6097, "bon": 6098, "asic": 6099, "pite": 6100, "___": 6101, "Max": 6102, "\u0120errors": 6103, "\u0120While": 6104, "\u0120arguments": 6105, "\u0120ensure": 6106, "Right": 6107, "-based": 6108, "Web": 6109, "\u0120-=": 6110, "\u0120introdu": 6111, "\u0120Inst": 6112, "\u0120Wash": 6113, "ordin": 6114, "join": 6115, "Database": 6116, "\u0120grad": 6117, "\u0120usually": 6118, "ITE": 6119, "Props": 6120, "?>\u010a": 6121, "\u0120Go": 6122, "@Override": 6123, "REF": 6124, "\u0120ip": 6125, "\u0120Austral": 6126, "\u0120ist": 6127, "ViewById": 6128, "\u0120serious": 6129, "\u0120customer": 6130, ".prototype": 6131, "odo": 6132, "cor": 6133, "\u0120door": 6134, "\u0120WITHOUT": 6135, "\u0120plant": 6136, "\u0120began": 6137, "\u0120distance": 6138, "()).": 6139, "\u0120chance": 6140, "\u0120ord": 6141, "came": 6142, "pragma": 6143, "\u0120protect": 6144, "ragment": 6145, "\u0120Node": 6146, "ening": 6147, "\u00d1\u0129": 6148, "\u0120route": 6149, "\u0120School": 6150, "hi": 6151, "\u0120neighb": 6152, "After": 6153, "licit": 6154, "\u0120contr": 6155, "\u0120primary": 6156, "AA": 6157, ".WriteLine": 6158, "utils": 6159, "\u0120bi": 6160, "Red": 6161, ".Linq": 6162, ".object": 6163, "\u0120leaders": 6164, "unities": 6165, "\u0120gun": 6166, "onth": 6167, "\u0120Dev": 6168, "FILE": 6169, "\u0120comments": 6170, "_len": 6171, "arrow": 6172, "amount": 6173, "Range": 6174, "sert": 6175, "GridView": 6176, "\u0120updated": 6177, "\u0120Mo": 6178, "\u0120inform": 6179, "ociety": 6180, "ala": 6181, "Access": 6182, "\u0120hab": 6183, "\u0120creat": 6184, "_arg": 6185, "\u0120January": 6186, "\u0120Day": 6187, "\")\u010d\u010a": 6188, "uple": 6189, "document": 6190, "gorith": 6191, "menu": 6192, "\u0120Over": 6193, "bb": 6194, ".title": 6195, "_out": 6196, "\u0120led": 6197, "uri": 6198, "\u0120?></": 6199, "gl": 6200, "\u0120bank": 6201, "ayment": 6202, "\u0109printf": 6203, "MD": 6204, "\u0120sample": 6205, "\u0120hands": 6206, "\u0120Version": 6207, "uario": 6208, "\u0120offers": 6209, "ityEngine": 6210, "\u0120shape": 6211, "\u0120sleep": 6212, "_point": 6213, "Settings": 6214, "\u0120achie": 6215, "\u0120sold": 6216, "ota": 6217, ".bind": 6218, "Am": 6219, "\u0120safe": 6220, "Store": 6221, "\u0120shared": 6222, "\u0120priv": 6223, "_VAL": 6224, "\u0120sens": 6225, "){": 6226, "\u0120remember": 6227, "shared": 6228, "element": 6229, "\u0120shoot": 6230, "Vert": 6231, "cout": 6232, "\u0120env": 6233, "_label": 6234, "\u0120>\u010a": 6235, "run": 6236, "\u0120scene": 6237, "(array": 6238, "device": 6239, "_title": 6240, "agon": 6241, "]\u010d\u010a": 6242, "aby": 6243, "\u0120became": 6244, "boolean": 6245, "\u0120park": 6246, "\u0120Code": 6247, "upload": 6248, "riday": 6249, "\u0120September": 6250, "Fe": 6251, "\u0120sen": 6252, "cing": 6253, "FL": 6254, "Col": 6255, "uts": 6256, "_page": 6257, "inn": 6258, "\u0120implied": 6259, "aling": 6260, "\u0120yourself": 6261, ".Count": 6262, "conf": 6263, "\u0120aud": 6264, "_init": 6265, ".)": 6266, "\u0120wrote": 6267, "003": 6268, "NG": 6269, ".Error": 6270, "\u00e4\u00bb": 6271, ".for": 6272, "\u0120equal": 6273, "\u0120Request": 6274, "\u0120serial": 6275, "\u0120allows": 6276, "XX": 6277, "\u0120middle": 6278, "chor": 6279, "195": 6280, "94": 6281, "\u00c3\u00b8": 6282, "erval": 6283, ".Column": 6284, "reading": 6285, "\u0120escort": 6286, "\u0120August": 6287, "\u0120quickly": 6288, "\u0120weap": 6289, "\u0120CG": 6290, "ropri": 6291, "ho": 6292, "\u0120cop": 6293, "(struct": 6294, "\u0120Big": 6295, "\u0120vs": 6296, "\u0120frequ": 6297, ".Value": 6298, "\u0120actions": 6299, "\u0120proper": 6300, "\u0120inn": 6301, "\u0120objects": 6302, "\u0120matrix": 6303, "avascript": 6304, "\u0120ones": 6305, ".group": 6306, "\u0120green": 6307, "\u0120paint": 6308, "ools": 6309, "ycl": 6310, "encode": 6311, "olt": 6312, "comment": 6313, ".api": 6314, "Dir": 6315, "\u0120une": 6316, "izont": 6317, ".position": 6318, "\u0120designed": 6319, "_val": 6320, "avi": 6321, "iring": 6322, "tab": 6323, "\u0120layer": 6324, "\u0120views": 6325, "\u0120reve": 6326, "rael": 6327, "\u0120ON": 6328, "rics": 6329, "160": 6330, "np": 6331, "\u0120core": 6332, "());\u010d\u010a": 6333, "Main": 6334, "\u0120expert": 6335, "\u0109\u0109\u010d\u010a": 6336, "_en": 6337, "\u0120/>": 6338, "utter": 6339, "IAL": 6340, "ails": 6341, "\u0120King": 6342, "*/\u010a\u010a": 6343, "\u0120Met": 6344, "_end": 6345, "addr": 6346, "ora": 6347, "\u0120ir": 6348, "Min": 6349, "\u0120surpr": 6350, "\u0120repe": 6351, "\u0120directory": 6352, "PUT": 6353, "-S": 6354, "\u0120election": 6355, "haps": 6356, ".pre": 6357, "cm": 6358, "Values": 6359, "\u0120\"\u010a": 6360, "column": 6361, "ivil": 6362, "Login": 6363, "inue": 6364, "93": 6365, "\u0120beautiful": 6366, "\u0120secret": 6367, "(event": 6368, "\u0120chat": 6369, "ums": 6370, "\u0120origin": 6371, "\u0120effects": 6372, "\u0120management": 6373, "illa": 6374, "tk": 6375, "\u0120setting": 6376, "\u0120Cour": 6377, "\u0120massage": 6378, "\u0109end": 6379, "\u0120happy": 6380, "\u0120finish": 6381, "\u0120camera": 6382, "\u0120Ver": 6383, "\u0120Democr": 6384, "\u0120Her": 6385, "(Q": 6386, "cons": 6387, "ita": 6388, "\u0120'.": 6389, "{}": 6390, "\u0109C": 6391, "\u0120stuff": 6392, "194": 6393, "\u0120:\u010a": 6394, "\u0120AR": 6395, "Task": 6396, "hidden": 6397, "eros": 6398, "IGN": 6399, "atio": 6400, "\u0120Health": 6401, "olute": 6402, "Enter": 6403, "'>": 6404, "\u0120Twitter": 6405, "\u0120County": 6406, "scribe": 6407, "\u0120=>\u010a": 6408, "\u0120hy": 6409, "fit": 6410, "\u0120military": 6411, "\u0120sale": 6412, "required": 6413, "non": 6414, "bootstrap": 6415, "hold": 6416, "rim": 6417, "-old": 6418, "\u0120Down": 6419, "\u0120mention": 6420, "contact": 6421, "_group": 6422, "oday": 6423, "\u0120town": 6424, "\u0120solution": 6425, "uate": 6426, "elling": 6427, "]->": 6428, "otes": 6429, "ental": 6430, "omen": 6431, "ospital": 6432, "\u0120Sup": 6433, "_EN": 6434, "\u0120slow": 6435, "SESSION": 6436, "\u0120blue": 6437, "ago": 6438, "\u0120lives": 6439, "\u0120^": 6440, ".un": 6441, "inst": 6442, "enge": 6443, "\u0120customers": 6444, "\u0120cast": 6445, "udget": 6446, "\u00ef\u00bc\u0123": 6447, "icens": 6448, "\u0120determin": 6449, "Selected": 6450, "_pl": 6451, "ueue": 6452, "\u0120dark": 6453, "//\u010a\u010a": 6454, "si": 6455, "thern": 6456, "\u0120Japan": 6457, "/w": 6458, "PU": 6459, "\u0120East": 6460, "ovie": 6461, "\u0120package": 6462, "\u0120nor": 6463, "\u0120api": 6464, "bot": 6465, "\"];\u010a": 6466, "_post": 6467, "ulate": 6468, "\u0120club": 6469, "'));\u010a": 6470, "\u0120loop": 6471, "PIO": 6472, "ione": 6473, "shot": 6474, "Initial": 6475, "\u0120played": 6476, "register": 6477, "rought": 6478, "_max": 6479, "acement": 6480, "match": 6481, "raphics": 6482, "AST": 6483, "\u0120existing": 6484, "\u0120complex": 6485, "DA": 6486, ".Ch": 6487, ".common": 6488, "mo": 6489, "\u0120'../../": 6490, "ito": 6491, "\u0120analysis": 6492, "\u0120deliver": 6493, "\u0120\u0120\u0120\u0120\u0120\u0120\u0120\u0120\u0120\u0120\u0120\u0120\u0120\u0120\u0120\u0120\u010a": 6494, "idx": 6495, "\u00c3\u0142": 6496, "ongo": 6497, "\u0120English": 6498, "<!--": 6499, "\u0120computer": 6500, "ENSE": 6501, "\u0120pas": 6502, "\u0120rais": 6503, "Hash": 6504, "\u0120mobile": 6505, "\u0120owner": 6506, "FIG": 6507, "\u0120\u0120\u0120\u0120\u0120\u0120\u0120\u0120\u0120\u0120\u0120\u0120\u0120\u0120\u0120\u0120\u0120\u0120\u0120\u0120\u0120\u0120\u0120\u0120\u0120\u0120\u0120\u0120\u0120\u0120\u0120\u0120\u0120\u0120\u0120\u0120\u0120\u0120\u0120\u0120\u0120\u0120\u0120\u0120\u0120\u0120\u0120\u0120\u0120\u0120\u0120": 6508, "thes": 6509, "\u0120attr": 6510, "wd": 6511, ".time": 6512, "awn": 6513, "\u0120treatment": 6514, "\u0120Ac": 6515, ".View": 6516, "impl": 6517, "more": 6518, "pass": 6519, "\u0120ha": 6520, ".from": 6521, "\u0120leading": 6522, "FFFF": 6523, "(error": 6524, ".ui": 6525, "atar": 6526, "aders": 6527, "dates": 6528, "\u0120zu": 6529, "\u0120flow": 6530, "Target": 6531, "\u0120involved": 6532, "\u0120io": 6533, "parse": 6534, "$_": 6535, "hest": 6536, ".int": 6537, "-item": 6538, "asy": 6539, "Sp": 6540, "\u0120shift": 6541, "NT": 6542, "\u0120tf": 6543, "_TR": 6544, ".web": 6545, "CS": 6546, "\u0120})": 6547, "\u0120eyes": 6548, "125": 6549, "105": 6550, "_z": 6551, "');\u010d\u010a": 6552, "iforn": 6553, "\u0120{@": 6554, "\u0120nice": 6555, ".list": 6556, "\u0120\u0120\u0120\u0120\u010d\u010a": 6557, "\u0120floor": 6558, "\u0120redirect": 6559, "\u0120UK": 6560, "(['": 6561, "\u0120wish": 6562, "\u0120capt": 6563, "legal": 6564, "\u0120IO": 6565, "\u0120stage": 6566, ".String": 6567, "\u0120Afr": 6568, "igen": 6569, "\u0120SH": 6570, "Delete": 6571, "ells": 6572, "\u0120solid": 6573, "\u0120meeting": 6574, "\u0120worked": 6575, "\u0120editor": 6576, "iny": 6577, "\u00d0\u00bc": 6578, "_read": 6579, ".Id": 6580, "eff": 6581, "Offset": 6582, "cha": 6583, "USER": 6584, "\u0109\u0109\u0120\u0120\u0120": 6585, "ipped": 6586, "\u0120dict": 6587, "\u0120Run": 6588, ".hpp": 6589, "\u0120ang": 6590, "xml": 6591, "imple": 6592, "\u0120medical": 6593, "_token": 6594, "connect": 6595, "\u0120hour": 6596, "\u0120controller": 6597, "_message": 6598, "UID": 6599, "Gr": 6600, "anded": 6601, "_CH": 6602, "\u0120books": 6603, "\u0120speak": 6604, "aming": 6605, "\u0120mount": 6606, "Record": 6607, "\u0109struct": 6608, ".Web": 6609, "ondon": 6610, "\u0120//\u010a": 6611, "\u0120felt": 6612, ".Auto": 6613, "idge": 6614, "_pos": 6615, "PR": 6616, "\u0120modern": 6617, "Collection": 6618, "_msg": 6619, "CD": 6620, "\u0120Lo": 6621, "\u0120seconds": 6622, "ibly": 6623, ".equals": 6624, "\u0120international": 6625, "#pragma": 6626, "ooth": 6627, "Writer": 6628, "iate": 6629, "\u0120cele": 6630, "\u0120Bit": 6631, "ivo": 6632, "ivery": 6633, "rd": 6634, "HECK": 6635, "\u0120cache": 6636, ".count": 6637, "\u0120roll": 6638, ".Read": 6639, "108": 6640, "RED": 6641, "\u0120setup": 6642, "izontal": 6643, "models": 6644, "argv": 6645, "\u0120considered": 6646, "=\"../": 6647, "settings": 6648, "\u0120Rel": 6649, "\u0120growth": 6650, "\u0120mix": 6651, "\u0120Washington": 6652, "\u0120plt": 6653, "\u0120IM": 6654, "\u00e1\u00ba": 6655, "\u0120turned": 6656, "\u0120DateTime": 6657, "\u0120Wed": 6658, "(url": 6659, "\u0120\"-": 6660, "\u0120letter": 6661, "Async": 6662, "\u0120\u0120\u0120\u0120\u0120\u0120\u0120\u0120\u0120\u0120\u0120\u0120\u0120\u0120\u0120\u0120\u0120\u0120\u0120\u0120\u0120\u0120\u0120\u0120\u0120\u0120\u0120\u0120": 6663, "\u0120October": 6664, "_line": 6665, "\u0120attention": 6666, "\u0120collect": 6667, "\u0120Hash": 6668, "\u0120imag": 6669, "Tree": 6670, "\u0120situation": 6671, "ette": 6672, "_no": 6673, "IVE": 6674, "\u0120von": 6675, ".target": 6676, "\u0120knowledge": 6677, "\u0120drive": 6678, ".post": 6679, "\u0120blood": 6680, "\u0120cit": 6681, "primary": 6682, "\u0120configuration": 6683, "tee": 6684, "\u0120photo": 6685, "isode": 6686, "Trace": 6687, "\u0120gave": 6688, "\u0120shot": 6689, "\u0120Air": 6690, "\u0120mother": 6691, "price": 6692, "\u0120morning": 6693, ")){\u010a": 6694, "-x": 6695, "\u0120trade": 6696, "\u0120desc": 6697, "\u0120&&\u010a": 6698, "\u0120parents": 6699, "Api": 6700, "\u00e5\u012a": 6701, "ted": 6702, "wer": 6703, "\u0120\u00e6": 6704, "\u0120sy": 6705, "\u0120Ke": 6706, "Parser": 6707, "\u00e5\u0127": 6708, "ancy": 6709, "\u0120piece": 6710, "ifornia": 6711, "toString": 6712, "ran": 6713, "iding": 6714, "PTION": 6715, "comes": 6716, "/lic": 6717, ".client": 6718, "El": 6719, "Long": 6720, "\u0120professional": 6721, "rupt": 6722, "va": 6723, "\u0120completely": 6724, "\u0120practice": 6725, "002": 6726, "\u0120selection": 6727, "Rem": 6728, "ini": 6729, "\u0120cam": 6730, "REE": 6731, "\u0120sites": 6732, "pa": 6733, "ATUS": 6734, "\u00d1\u0123\u00d1\u0124": 6735, "arrant": 6736, "*(": 6737, "_KEY": 6738, "\u0120Button": 6739, "\u0120Friday": 6740, "sequ": 6741, "\u0120reader": 6742, "\u0120messages": 6743, "\u00e8\u00af": 6744, "\u0120buf": 6745, "Ke": 6746, "\u0120nov": 6747, "HP": 6748, "Msg": 6749, "align": 6750, "arily": 6751, "\u0120',": 6752, "_with": 6753, "\u0120das": 6754, "\u0120heard": 6755, "atomic": 6756, "rial": 6757, ")[": 6758, "\u0120dise": 6759, "@end": 6760, "\u0120gold": 6761, "\u0120fair": 6762, "\u0120sales": 6763, ".Button": 6764, "strict": 6765, "save": 6766, "\u0120measure": 6767, "\u0120\"+": 6768, "ecause": 6769, "ViewController": 6770, "\u0120Table": 6771, ".param": 6772, "\u0120decided": 6773, "(((": 6774, "INFO": 6775, "\u0120opportunity": 6776, "Te": 6777, "ICENSE": 6778, "ccording": 6779, "ki": 6780, "\u0120UN": 6781, "\u0120contain": 6782, "\u0120manager": 6783, "\u0120pain": 6784, "\u0120Fire": 6785, "rome": 6786, "\u0120plans": 6787, "Found": 6788, "lay": 6789, "\u0120December": 6790, "\u0120influ": 6791, "\u00c3\u00ba": 6792, "rench": 6793, "\u0120\u0120\u0120\u0120\u0120\u0120\u0120\u0120\u0120\u0120\u0120\u0120\u0120\u0120\u0120\u0120\u0120\u0120\u0120\u0120\u0120\u0120\u0120\u0120\u0120\u0120\u0120\u0120\u0120\u0120\u0120\u0120\u0120": 6794, "azing": 6795, "brief": 6796, "call": 6797, "wood": 6798, "\u0120loaded": 6799, "\u0120grand": 6800, "/f": 6801, "imp": 6802, "_U": 6803, "127": 6804, "STR": 6805, "\u00e2\u0122\u00a2": 6806, "\u0120credit": 6807, ".Color": 6808, "orge": 6809, "QUEST": 6810, "\u0120difference": 6811, "\u0120PC": 6812, "wargs": 6813, "\u0120pub": 6814, "unday": 6815, "\u0120fra": 6816, ".max": 6817, "\u0120tried": 6818, "annels": 6819, "send": 6820, "\u0120reports": 6821, "\u0120adult": 6822, "\u00e4\u00ba": 6823, "\u0120consist": 6824, "\u0120Street": 6825, "\u0120Program": 6826, "SQL": 6827, "Matrix": 6828, "ouncil": 6829, "-A": 6830, "\u0109w": 6831, "\u0120whose": 6832, "\u0120relig": 6833, "\u0120Sex": 6834, "\u0120gives": 6835, "none": 6836, ".message": 6837, "(G": 6838, ".awt": 6839, "-right": 6840, "\u0120November": 6841, "ellig": 6842, "360": 6843, "utive": 6844, "\u00c4\u0125": 6845, "overn": 6846, "\u0120easily": 6847, "\u0120ideas": 6848, "104": 6849, "\u0120\u00d0\u00bd": 6850, "/css": 6851, "lying": 6852, "elle": 6853, "Can": 6854, "_color": 6855, "\u00d0\u00be\u00d0\u00b2": 6856, "\u0120pair": 6857, "ngth": 6858, "\u0120split": 6859, "140": 6860, "drop": 6861, "arty": 6862, "ona": 6863, "\u0120capital": 6864, "\u0120hear": 6865, "\u0120exists": 6866, "\u0109log": 6867, "emo": 6868, "Run": 6869, "oi": 6870, "\u0120parser": 6871, "\u0120Method": 6872, "\u0120education": 6873, "[k": 6874, "\u0120library": 6875, ">\";\u010a": 6876, "_UN": 6877, "\u0109std": 6878, "oded": 6879, "\u0120calls": 6880, "here": 6881, "Rel": 6882, "\u0120brand": 6883, "background": 6884, "ga": 6885, "_address": 6886, "_params": 6887, "Category": 6888, "103": 6889, "\u0120India": 6890, "_event": 6891, "\u0120ing": 6892, "Render": 6893, ".cl": 6894, "umpy": 6895, "\u0120pet": 6896, "FC": 6897, "\u0120Ant": 6898, "Ext": 6899, "\u0120charge": 6900, "ened": 6901, "grad": 6902, "EO": 6903, "\u0120depend": 6904, "\u0120.\u010a\u010a": 6905, "frame": 6906, "\u0120df": 6907, "\u0120huge": 6908, "\u0120PART": 6909, "eds": 6910, ";;": 6911, "\u0120AM": 6912, "\u0120basic": 6913, "\u0120Let": 6914, "lich": 6915, "\u0120arm": 6916, "\u0120star": 6917, "\u0120federal": 6918, "Work": 6919, "\u0120carry": 6920, "\u0120Israel": 6921, "(obj": 6922, "={{": 6923, "\u0120saved": 6924, "\u0120syn": 6925, "\u0120constant": 6926, "VENT": 6927, "\u0120positive": 6928, "\u0120conduct": 6929, "\u0120skin": 6930, "\u0120earlier": 6931, "\u0120layout": 6932, "\u0120IP": 6933, "OUR": 6934, "\u0120tim": 6935, "stylesheet": 6936, "_cl": 6937, "\u0120Card": 6938, "++){\u010a": 6939, "\u0120temper": 6940, "\u0120David": 6941, "\u0109try": 6942, ".dart": 6943, "\u0120wants": 6944, "\u0120picture": 6945, "\u0120videos": 6946, "\u0120Comm": 6947, "isions": 6948, "_MAX": 6949, "Mapping": 6950, "-content": 6951, "\u0120Ear": 6952, "-de": 6953, "\u0120prem": 6954, "bruary": 6955, "\u0120components": 6956, "\u0120throughout": 6957, "\u0120pull": 6958, "\u0120pages": 6959, "ente": 6960, "respond": 6961, "\u0120gas": 6962, "criptor": 6963, "\u0120edge": 6964, "\u0120bound": 6965, "ACT": 6966, "******": 6967, "\u0120creating": 6968, "\u0120CH": 6969, "\u0120nullptr": 6970, "Br": 6971, "+'": 6972, ".co": 6973, ">::": 6974, "\u0120learning": 6975, ".Length": 6976, "_SH": 6977, "\u0120patients": 6978, "AIN": 6979, "\u0120kids": 6980, "\u0120comfort": 6981, "\u0120shown": 6982, "ugins": 6983, "\u0120Back": 6984, "ella": 6985, "_CL": 6986, "\u0120lat": 6987, "\u0120dispatch": 6988, "\u0120classes": 6989, ".at": 6990, ".begin": 6991, "\u0120successful": 6992, "ban": 6993, "\u0120obtain": 6994, "\u0120Sl": 6995, "\u0120lack": 6996, "iterator": 6997, "Thread": 6998, "(size": 6999, "\u0120none": 7000, ".has": 7001, "_X": 7002, "sort": 7003, "nap": 7004, "pet": 7005, "bin": 7006, "700": 7007, "\u0120Canada": 7008, "They": 7009, "\u0120dans": 7010, "\u0120Mat": 7011, "<td": 7012, "\u0120hair": 7013, "\u0120'',\u010a": 7014, "\u0120cu": 7015, "\u0120laws": 7016, "leted": 7017, "ped": 7018, "\u0120pow": 7019, "\u0120knew": 7020, "_COM": 7021, "_,": 7022, "\u0120Mag": 7023, "idents": 7024, "(req": 7025, "\u0120),": 7026, "-center": 7027, "190": 7028, "\u0120wide": 7029, "\u0120Author": 7030, "stants": 7031, "\u0120jobs": 7032, "\u0120math": 7033, "etimes": 7034, "Boolean": 7035, "\u0120scope": 7036, "_is": 7037, "\u0120meas": 7038, "\u0120keys": 7039, "elay": 7040, "\u0120exactly": 7041, "'=>'": 7042, "\u0120Paul": 7043, "mas": 7044, "\u0109print": 7045, "(len": 7046, "fd": 7047, "\u0120);": 7048, ".Event": 7049, "qli": 7050, "irit": 7051, "ields": 7052, "oman": 7053, "\u0120Top": 7054, "\u0120vote": 7055, "\u0120mask": 7056, "\u0120theme": 7057, "-\u010a": 7058, "\u0120props": 7059, "\u0120fine": 7060, "\u0120writer": 7061, "_offset": 7062, "car": 7063, "\u0120altern": 7064, "\u0120copyright": 7065, "\u0120destroy": 7066, "pper": 7067, "\u0120generate": 7068, "pped": 7069, "\u00e2\u0122\u013bd": 7070, "\u0120\u0120\u0120\u0120\u0120\u0120\u010a": 7071, "make": 7072, "\u0120Show": 7073, "\u0120browser": 7074, "\u0120favorite": 7075, "\u0120career": 7076, "\u0120happened": 7077, "(char": 7078, "\u0120recommend": 7079, "\u0120liter": 7080, ".filter": 7081, "grade": 7082, "\u0120\u00c2\u00a3": 7083, "Phone": 7084, "oms": 7085, "\u0120named": 7086, "-label": 7087, "ipo": 7088, "\u0120Other": 7089, "\u0120panel": 7090, "\u0120rock": 7091, "Scale": 7092, "\u0109assert": 7093, "\u00d0\u00b4": 7094, "\u0120trust": 7095, "front": 7096, "\u0120demon": 7097, "Ar": 7098, "Net": 7099, "\u0120economic": 7100, "footer": 7101, "\u0120race": 7102, "(node": 7103, "\u0120Option": 7104, "split": 7105, "\u0120physical": 7106, "ifest": 7107, "\u0120removed": 7108, ".http": 7109, ")),\u010a": 7110, "\u0120looked": 7111, "';": 7112, "ding": 7113, "gest": 7114, "aturday": 7115, "/licenses": 7116, "Price": 7117, "\u0120dro": 7118, "\u0120towards": 7119, "\u0120uns": 7120, "\u0120CL": 7121, "\u0109static": 7122, "\u0120rows": 7123, "\u0120define": 7124, ".replace": 7125, "\u0120father": 7126, "\u0120Design": 7127, "assign": 7128, "mut": 7129, "Device": 7130, "Did": 7131, "'))\u010a": 7132, "ometry": 7133, "ayload": 7134, "\u0120histor": 7135, "\u0120Param": 7136, "\u0120Boolean": 7137, "\u0120nature": 7138, "\u0120js": 7139, "\u0120nation": 7140, "ih": 7141, "\u0120discover": 7142, "sem": 7143, "Handle": 7144, "\u0109r": 7145, "\u0120Techn": 7146, "\u0120wall": 7147, "{$": 7148, "@property": 7149, "\u0120\"../": 7150, "\u0120exam": 7151, ".draw": 7152, "opping": 7153, "\u0120nearly": 7154, "\u0120cool": 7155, "\u0120independ": 7156, "RES": 7157, "\u0120handler": 7158, "\u0120Monday": 7159, "\u0120sun": 7160, "Styles": 7161, "ously": 7162, "\u0120\u0109": 7163, "vest": 7164, "Display": 7165, "(y": 7166, "atically": 7167, "\u0120predict": 7168, "ying": 7169, "\u0120sometimes": 7170, "\"]\u010a": 7171, "\u0120drink": 7172, "\u0120bul": 7173, "ifications": 7174, ".insert": 7175, ".reg": 7176, "\u0120tests": 7177, "Alignment": 7178, "\u0120alleg": 7179, "\u0120attribute": 7180, "\u0120Note": 7181, "\u0120myself": 7182, "arts": 7183, "Now": 7184, "\u0120interesting": 7185, "lients": 7186, "\u0120population": 7187, "\u0120California": 7188, "\"I": 7189, "\u00e5\u00b9": 7190, "\u0120greater": 7191, "uesday": 7192, "\u0120thous": 7193, "\u0120costs": 7194, "\u0120launch": 7195, "\\Http": 7196, "ker": 7197, "band": 7198, "\u0120Play": 7199, "\u0120band": 7200, ".shape": 7201, "esome": 7202, "article": 7203, ".rf": 7204, "\u0120wer": 7205, "\u00c3\u00a1s": 7206, "embers": 7207, "usr": 7208, "BA": 7209, "ican": 7210, "ett": 7211, "validate": 7212, "ulti": 7213, "\u0120immediately": 7214, "zer": 7215, "\u0120figure": 7216, "oes": 7217, "eller": 7218, "ircle": 7219, "\u0120Sign": 7220, ".db": 7221, "\u0120rank": 7222, "Bytes": 7223, "\u0120projects": 7224, "_rec": 7225, "ULAR": 7226, "API": 7227, "\u0120Line": 7228, "Port": 7229, "\u0120poll": 7230, "\u0120giving": 7231, "idence": 7232, "--\u010a": 7233, "\u0120plot": 7234, "icial": 7235, "\u0120warrant": 7236, "ITION": 7237, "\u0120Double": 7238, "\u0120billion": 7239, "gorithm": 7240, "\u0120equipment": 7241, "DATE": 7242, "\u0120@\"": 7243, "EE": 7244, "\u0120ple": 7245, "iation": 7246, "\u0120headers": 7247, "\u0120proced": 7248, ".ComponentModel": 7249, "\u0120Obama": 7250, "\u0120pa": 7251, "\u0120Best": 7252, "imately": 7253, ".getString": 7254, ".\\": 7255, "mploy": 7256, "\u0120raw": 7257, "_block": 7258, "undred": 7259, "\"},\u010a": 7260, "112": 7261, ".GroupLayout": 7262, "\u0120brought": 7263, "NSString": 7264, "throw": 7265, "created": 7266, ".New": 7267, "_view": 7268, "CP": 7269, "eps": 7270, "Op": 7271, "\u0120gratis": 7272, "\u0120'\"": 7273, "\u0120interview": 7274, "\"\"\"\u010a": 7275, "\u0120partial": 7276, "\u0120aria": 7277, "bing": 7278, "Author": 7279, "Book": 7280, "\u0120Pat": 7281, "uman": 7282, "Users": 7283, "plus": 7284, "193": 7285, "\u0120Direct": 7286, "venue": 7287, "alpha": 7288, "UCCESS": 7289, "\u0120Call": 7290, "\u0120);\u010d\u010a": 7291, "imated": 7292, "\u0120remain": 7293, "\u0120anti": 7294, "\u0120London": 7295, "\u0120safety": 7296, "POSE": 7297, "oles": 7298, "controller": 7299, "Byte": 7300, "\u0120Court": 7301, "\u0120Phil": 7302, "\u0120Associ": 7303, "ena": 7304, "\u00e5\u0132": 7305, "_STR": 7306, "coin": 7307, "reshold": 7308, "\u0120batch": 7309, "_Click": 7310, "entication": 7311, ">';\u010a": 7312, "enty": 7313, "\u0120beginning": 7314, "\u0120zero": 7315, "\u0120Convert": 7316, "\u0120terr": 7317, "\u0120paid": 7318, "\u0120increased": 7319, "catch": 7320, "-size": 7321, "115": 7322, "activity": 7323, "equals": 7324, "\u0120queue": 7325, "\u0120\"'": 7326, "\u0120International": 7327, "\u0120f\u00c3\u00bcr": 7328, "ursday": 7329, "\u0120scient": 7330, "allow": 7331, "axis": 7332, "\u0120appropri": 7333, "edge": 7334, "\u0120idx": 7335, "Success": 7336, "entifier": 7337, ":\\": 7338, "xis": 7339, "\u0120maximum": 7340, "arks": 7341, "\u0120birth": 7342, "(index": 7343, "\u0120maybe": 7344, ".py": 7345, "files": 7346, "\u0120limited": 7347, "_check": 7348, "look": 7349, "plies": 7350, "\u0120movement": 7351, "'].": 7352, "\u0120broad": 7353, "\u0120BE": 7354, "\u0120UnityEngine": 7355, ".cpp": 7356, "\u0120Every": 7357, "Admin": 7358, "\u0120fans": 7359, "pared": 7360, "\u010a\u0120\u0120\u0120\u0120\u010a": 7361, "\u0120foreign": 7362, "\u0120pan": 7363, "\u0120tour": 7364, "\u0120Order": 7365, "\u0120moving": 7366, "\u0120auf": 7367, "Call": 7368, "cb": 7369, "\u00c5\u0141": 7370, "ventory": 7371, "\u0120Sql": 7372, "\u0120fully": 7373, "ClickListener": 7374, "WORD": 7375, "\u0120announced": 7376, ")\u010d\u010a\u010d\u010a": 7377, "\u0120agreed": 7378, "rie": 7379, "\u0120earn": 7380, "_link": 7381, ".array": 7382, "(text": 7383, "\u0120materials": 7384, ",p": 7385, "ffff": 7386, "vg": 7387, "\u0120\u00c2\u00a9": 7388, "\u0120unless": 7389, "ajax": 7390, "LOG": 7391, "\u0120sexual": 7392, "\u0120\\\"": 7393, "-time": 7394, "\u0120coach": 7395, "\u0120supported": 7396, "\u0120photos": 7397, "iform": 7398, ".Create": 7399, ")]": 7400, "rier": 7401, "\u0120dialog": 7402, "aver": 7403, "ige": 7404, ")+": 7405, "_idx": 7406, ":[": 7407, "_min": 7408, "\u0120Cong": 7409, "\u0120pressure": 7410, "\u0120teams": 7411, "Sign": 7412, "begin": 7413, "rian": 7414, "NESS": 7415, "LS": 7416, "\u0120improve": 7417, "\u0120Sunday": 7418, "\u0120definition": 7419, "iger": 7420, "rollers": 7421, "\u0120thinking": 7422, "Template": 7423, "-F": 7424, "\u0120emerg": 7425, "plates": 7426, "\u0120USA": 7427, ".setState": 7428, "\u0120Also": 7429, "rev": 7430, "\u0120enable": 7431, "\u0120CO": 7432, "PECT": 7433, "\u0120concept": 7434, ")-": 7435, "\u0120\u00e2\u0122\u00a2": 7436, "\u0120sets": 7437, "\u0120meaning": 7438, "emon": 7439, "\u0120Cons": 7440, "cmp": 7441, "eder": 7442, "anned": 7443, "icensed": 7444, "\u0120Super": 7445, "\u0120daily": 7446, "\u0120multi": 7447, "_u": 7448, "\u0120challeng": 7449, "_mode": 7450, "\u0120Promise": 7451, "\u0120strict": 7452, "jo": 7453, "inton": 7454, "(list": 7455, "Only": 7456, ">{": 7457, "\u0120vehicle": 7458, "\u00ed\u0137": 7459, "\u0120Player": 7460, "106": 7461, "\u0120Del": 7462, "\u0120pool": 7463, ".url": 7464, "nesday": 7465, "();\u010d\u010a\u010d\u010a": 7466, "900": 7467, "\u0120\");\u010a": 7468, "Local": 7469, ".\");\u010a": 7470, "\u0120organization": 7471, "render": 7472, "\u0120Application": 7473, "\u0120summer": 7474, "expected": 7475, "NA": 7476, "\u0120rap": 7477, "_obj": 7478, "\u0120surface": 7479, "\u0120PUR": 7480, "\u0120},\u010a\u010a": 7481, "\u0120variables": 7482, "(message": 7483, "\u0120opin": 7484, ".back": 7485, "\u00d0\u00b0\u00d0\u00bd": 7486, "\u0120workers": 7487, "vm": 7488, "Co": 7489, "ughter": 7490, "\u0120master": 7491, "\u0120\"\",": 7492, "\u0120stories": 7493, ".User": 7494, "\u0120celebr": 7495, "inese": 7496, "BS": 7497, "\u0120Command": 7498, "ashboard": 7499, "\u0120og": 7500, "kg": 7501, ".image": 7502, ".style": 7503, "\u0120steps": 7504, "\u0120Ben": 7505, "(args": 7506, "404": 7507, "\u0120Person": 7508, ",y": 7509, "\u0120officials": 7510, "|\u010a": 7511, "\u0120skills": 7512, "vc": 7513, "\u0120builder": 7514, "\u0120gar": 7515, "Account": 7516, "\u0120Auth": 7517, "\u00e7\u0136": 7518, "'])\u010a": 7519, "\u0120AT": 7520, "nn": 7521, ".Int": 7522, "SSERT": 7523, "\u0120effective": 7524, "LETE": 7525, "\u0120tools": 7526, "ARD": 7527, "\u0120digital": 7528, "191": 7529, "Double": 7530, "\u0120Find": 7531, "RC": 7532, "\u0120inline": 7533, "/r": 7534, "ARAM": 7535, "ASK": 7536, "\u0120intent": 7537, "aight": 7538, "_addr": 7539, "\u0120requests": 7540, ".first": 7541, "\u0120debug": 7542, "\u0120spent": 7543, "()));\u010a": 7544, "\u00c5\u013d": 7545, "\u0120princip": 7546, "Logger": 7547, "cludes": 7548, ".use": 7549, "\u0120surv": 7550, "media": 7551, "\u0120February": 7552, "\u0120Mac": 7553, "\u0120missing": 7554, "\u0120wife": 7555, "\u0120talking": 7556, "\u0120Make": 7557, "\u0120cart": 7558, "\u0120located": 7559, "Enc": 7560, "-a": 7561, "chron": 7562, "\u0120cards": 7563, "\u0120guy": 7564, "\u0120pers": 7565, "\u0120Yes": 7566, "atever": 7567, "\u0120Ang": 7568, "olar": 7569, "\u0120Even": 7570, "\u0120accur": 7571, "\u0120Power": 7572, "\u0120Gold": 7573, "clear": 7574, "Process": 7575, "\u0120records": 7576, "\u0120killed": 7577, ".clear": 7578, "\u0120WARRANTIES": 7579, "\u0120purpose": 7580, "panel": 7581, "JECT": 7582, "\u00c3\u0143a": 7583, "\u0120exerc": 7584, "WS": 7585, "/L": 7586, ".exports": 7587, "\u0120___": 7588, "\u0120sin": 7589, "Servlet": 7590, "\u0120d\u00c3\u00a9": 7591, ".delete": 7592, "roke": 7593, "Sl": 7594, "ugh": 7595, "ears": 7596, "\u0120pointer": 7597, "\u0120hop": 7598, "allery": 7599, "\u0120obs": 7600, "covery": 7601, "\u0109char": 7602, "\u0109\u0109\u0109\u0109\u0109\u0109\u0109\u0109\u0109\u0109": 7603, "\u0109def": 7604, "ocity": 7605, "itchen": 7606, "ulations": 7607, "\u0120FIT": 7608, "\u0120).": 7609, "straints": 7610, "vention": 7611, "\u0120requires": 7612, "\u0120Oper": 7613, "ME": 7614, "OUNT": 7615, "allet": 7616, "\u0120norm": 7617, "IRE": 7618, "exas": 7619, "\u0120programs": 7620, "\u0120weak": 7621, "'.$": 7622, "uing": 7623, "\u0109\u0120\u0120\u0120\u0120\u0120\u0120\u0120": 7624, "\u0120mil": 7625, "\u0120firm": 7626, "initely": 7627, "_VALUE": 7628, "apse": 7629, "atisf": 7630, "\u0120demand": 7631, "_mod": 7632, "\u0120described": 7633, "\u0120places": 7634, "VID": 7635, "\u0120alone": 7636, "\u0120export": 7637, "\u0120vec": 7638, "\u0120Max": 7639, "\u0120activities": 7640, "ictures": 7641, "gener": 7642, "\u0120ma": 7643, "\u0124\u00ac": 7644, "\u0120expression": 7645, "Callback": 7646, "_content": 7647, "\u0120Most": 7648, "\u0120testing": 7649, "EC": 7650, "CHANT": 7651, "\u0120adjust": 7652, ".Threading": 7653, "(ctx": 7654, "\u0120agree": 7655, "ighest": 7656, "\u0120ui": 7657, "\u0120Law": 7658, ".Y": 7659, "><?": 7660, "\u0120pod": 7661, "-lg": 7662, "\u00e2\u0122\u013f\u010a\u010a": 7663, "\u0120describe": 7664, "\u0120European": 7665, "-sh": 7666, "\u0120PURPOSE": 7667, "ORY": 7668, "\u0120convers": 7669, "\u0120Illuminate": 7670, "\u0120Av": 7671, "(ch": 7672, "?\"": 7673, "chen": 7674, "ima": 7675, "Document": 7676, "\u0120operations": 7677, "win": 7678, "\u0109function": 7679, ".Image": 7680, "\u0120scen": 7681, "/h": 7682, "\u0120SC": 7683, "\u0120explo": 7684, ":%": 7685, "/**\u010d\u010a": 7686, "NAME": 7687, "\u00e6\u012a": 7688, "(var": 7689, "\u0120director": 7690, "ONG": 7691, "\u0120yield": 7692, "\u0120feet": 7693, "\u0120Search": 7694, "\u0120Il": 7695, "\u0120restaur": 7696, "duc": 7697, "\u0120integer": 7698, "107": 7699, "\u0120'';\u010a": 7700, "\u0120highly": 7701, "checked": 7702, "\u0120PARTIC": 7703, "ERCHANT": 7704, "\u00ef\u00bc\u012b": 7705, "\u0120optim": 7706, "Queue": 7707, "\u0120LI": 7708, "itation": 7709, "\u0120transport": 7710, "ission": 7711, "fill": 7712, "usion": 7713, "\u0120\u0120\u0120\u0120\u0120\u0120\u0120\u0120\u0120\u0120\u0120\u0120\u0120\u0120\u0120\u0120\u0120\u0120\u0120\u0120\u0120\u0120\u0120\u0120\u0120\u0120\u0120\u0120\u0120\u0120": 7714, "\u0109bool": 7715, "-th": 7716, "upt": 7717, "\u0120essential": 7718, "anted": 7719, "\u0120benefits": 7720, "\u0109S": 7721, "';\u010d\u010a": 7722, "iki": 7723, "\u0120girls": 7724, "iced": 7725, "buffer": 7726, "]+": 7727, "\u0120socket": 7728, "\u0120prices": 7729, "\u0120Fre": 7730, "\u0120sat": 7731, "\u0120wood": 7732, "MenuItem": 7733, "ARG": 7734, "\u0120Admin": 7735, "OWN": 7736, "dk": 7737, "\u0120reset": 7738, "\u0120forms": 7739, "\u0120\u00d0\u00b8": 7740, "\u00e6\u0138": 7741, "\u0120Tuesday": 7742, "109": 7743, "\u0120Initialized": 7744, "_train": 7745, "orary": 7746, "ategor": 7747, "\u0120dt": 7748, "Total": 7749, "construct": 7750, "ilies": 7751, "\u0120guys": 7752, "\u00d0\u00b5\u00d1\u0122": 7753, "\u0120instruction": 7754, "010": 7755, "yled": 7756, "\u0120internet": 7757, "etadata": 7758, "ady": 7759, "faces": 7760, "jection": 7761, "\u0120Jack": 7762, "\u0120rect": 7763, "[-": 7764, "\u0120Leg": 7765, "\u0120devices": 7766, "OC": 7767, "\u0120*\u010d\u010a": 7768, "oration": 7769, "ertain": 7770, "\u0120guard": 7771, "ostream": 7772, "\u0120enum": 7773, ".layout": 7774, "\u0120\";\u010a": 7775, "voke": 7776, "\u0120Ok": 7777, "Home": 7778, "(tr": 7779, "ETH": 7780, "\u0120delay": 7781, "\u0120purchase": 7782, "dc": 7783, "\u0120aren": 7784, "_once": 7785, "\u0109\u0109\u0109\u0109\u010a": 7786, "ror": 7787, "draw": 7788, ".run": 7789, "(model": 7790, "Timeout": 7791, "lik": 7792, "\u0120Arg": 7793, ".en": 7794, "\u0120fish": 7795, "cpy": 7796, "_fe": 7797, "ERCHANTABILITY": 7798, "(X": 7799, "_output": 7800, "??": 7801, "\u0120jo": 7802, "andard": 7803, "\u0120doll": 7804, "errors": 7805, "_base": 7806, "\u0120PARTICULAR": 7807, "\u0120leader": 7808, "\u0120compar": 7809, "\u0120doub": 7810, "\u0120Vis": 7811, "StackTrace": 7812, "-C": 7813, "\u0120Stud": 7814, "stitute": 7815, "More": 7816, "\u0120Description": 7817, "WARE": 7818, "ads": 7819, "\u0120\u00d0\u00ba": 7820, "bind": 7821, "=self": 7822, "employ": 7823, "[n": 7824, ".all": 7825, "-B": 7826, "&&": 7827, "alm": 7828, "\u0120culture": 7829, "house": 7830, "\u0120suffer": 7831, "\u0120'%": 7832, "\u0120straight": 7833, "\u0120Star": 7834, "udo": 7835, "\u0120ded": 7836, "\u0120COM": 7837, "\u0120confirm": 7838, "\u0120Good": 7839, ".sc": 7840, "________________": 7841, "DR": 7842, "Configuration": 7843, "DateTime": 7844, "\u0120advert": 7845, "\u0120couldn": 7846, "async": 7847, "stack": 7848, "')\u010d\u010a": 7849, "Kit": 7850, "\u0120hous": 7851, "\u0120mechan": 7852, "rate": 7853, "204": 7854, "\u0120audio": 7855, "\u0109cout": 7856, "cores": 7857, "\u0120spot": 7858, "\u0120increasing": 7859, "\u0120##": 7860, ")))": 7861, "points": 7862, "\u0120compared": 7863, "lig": 7864, "\u0120behavior": 7865, "\u0120BY": 7866, "\u0120Att": 7867, "craft": 7868, "headers": 7869, "ete": 7870, "endregion": 7871, "\u0120detail": 7872, "ULE": 7873, "\u0120Common": 7874, "\u0109protected": 7875, "ston": 7876, "\u0120FITNESS": 7877, "\u0120fresh": 7878, "\">\u010a\u010a": 7879, ".example": 7880, "berg": 7881, "\u0120moved": 7882, "\u0109e": 7883, "\u0120Saturday": 7884, "\u0120payload": 7885, "\u00c4\u0129": 7886, "):\u010a\u010a": 7887, "\u0120bey": 7888, "urer": 7889, "<script": 7890, "\u0120symbol": 7891, "\u0120assum": 7892, "\u0120pul": 7893, "Effect": 7894, "\u0120hundred": 7895, "Tool": 7896, "aked": 7897, "connection": 7898, "\u0120voice": 7899, "\u0120pd": 7900, "\u0120transaction": 7901, "\u0120links": 7902, "Err": 7903, "\u0120Indian": 7904, "TC": 7905, "atalog": 7906, "ni": 7907, "sign": 7908, "<<\"": 7909, "ji": 7910, "ya": 7911, "\u0120demonstr": 7912, "ulated": 7913, ".St": 7914, "\u0120instit": 7915, "\u0120boost": 7916, "\u0120cells": 7917, "olic": 7918, ".Pro": 7919, ":</": 7920, "EventListener": 7921, "ifying": 7922, "\u0120Di": 7923, "orrow": 7924, ".execute": 7925, "\u0120college": 7926, "Your": 7927, "\u0120largest": 7928, ".dis": 7929, "\u0120qui": 7930, "\u0120individuals": 7931, "_buffer": 7932, "\u0120ng": 7933, "SA": 7934, "\u0120Control": 7935, "\u0120sing": 7936, "\u0120suit": 7937, "\u0120\u0120\u0120\u0120\u0109": 7938, "SG": 7939, "\u0120jump": 7940, "\u0120smart": 7941, "oma": 7942, "\u0120Exp": 7943, "\u0120'-": 7944, "\u0120assist": 7945, "\u0120successfully": 7946, "sys": 7947, "\u0120Cre": 7948, "_ref": 7949, "\u0120Thursday": 7950, "\u0120bur": 7951, "\u0120\u00d0\u00b4": 7952, "\u0120beyond": 7953, "\u0120nodes": 7954, "Details": 7955, "inct": 7956, "\u0120James": 7957, "\u0120affect": 7958, "exception": 7959, "\u0120typeof": 7960, "(\u010d\u010a": 7961, "-se": 7962, "\u0120fetch": 7963, "`,": 7964, "\u0120crusher": 7965, "}.": 7966, "\u0120BO": 7967, "Show": 7968, "\u0120rates": 7969, "\u0120bon": 7970, "-icon": 7971, "\u0120Media": 7972, "RESS": 7973, "\u0120Valid": 7974, "\u00d0\u00be\u00d0\u00bb": 7975, "\u0120fuck": 7976, "acks": 7977, "\u0120studies": 7978, "Me": 7979, "\u0120owners": 7980, "}else": 7981, "\u0120growing": 7982, "Variable": 7983, "\u0120Bel": 7984, ".random": 7985, "vement": 7986, "onym": 7987, "(F": 7988, "\u0120FALSE": 7989, "\u0120torch": 7990, "(row": 7991, "igo": 7992, "structure": 7993, "121": 7994, "\u0120certainly": 7995, "Dep": 7996, "\u0120Green": 7997, "question": 7998, "\u0120adding": 7999, "\u0120Develop": 8000, "_def": 8001, "\u0120mach": 8002, "=%": 8003, "\u0109\u0109\u0120": 8004, "conds": 8005, "Project": 8006, "\u0120reject": 8007, "\u0120\u00ce": 8008, "\u0120poor": 8009, "\u0120aware": 8010, "114": 8011, "\u0120Build": 8012, "\u0120British": 8013, "\u0120NE": 8014, "\u0120numer": 8015, "rees": 8016, "claim": 8017, "\u0120mock": 8018, "\u0120om": 8019, "\u0120scre": 8020, "OLD": 8021, ".pl": 8022, "eler": 8023, "\u0120correspond": 8024, "_HE": 8025, "\u0120binary": 8026, "116": 8027, "_order": 8028, "\u0120SQL": 8029, "\u0120advant": 8030, "\u0120prev": 8031, ".[": 8032, ".assertEqual": 8033, "plier": 8034, "arp": 8035, "\u0120closed": 8036, "\u0120encour": 8037, "\u0120QString": 8038, "aud": 8039, "\u0120developed": 8040, "\u0120permission": 8041, ".debug": 8042, "operator": 8043, "\u0120'\u010a": 8044, "\u0120sym": 8045, "atively": 8046, "\u00c3\u00a9e": 8047, "-color": 8048, "\u0120GET": 8049, "ky": 8050, "\u0120although": 8051, "_request": 8052, "_element": 8053, "................": 8054, "_DATA": 8055, "\u0120amazing": 8056, "\u0120sb": 8057, "\u0120Default": 8058, "Events": 8059, "\u0120failure": 8060, "acle": 8061, "Properties": 8062, "\u0120dream": 8063, "\u0120distr": 8064, "\u0120au": 8065, "\u0120generated": 8066, "\u00e6\u0137": 8067, "\u0120Team": 8068, "USE": 8069, "\u0120income": 8070, "\u0120eye": 8071, "_not": 8072, "\"],": 8073, "_form": 8074, "Support": 8075, "orders": 8076, ".Print": 8077, "ville": 8078, "\u0120Wednesday": 8079, "olver": 8080, "\u0120oppos": 8081, "isation": 8082, "ola": 8083, "Close": 8084, "<p": 8085, "_width": 8086, "Invalid": 8087, "xb": 8088, "\u0120strugg": 8089, "_action": 8090, "\u0120txt": 8091, "\u0120Path": 8092, "alar": 8093, "\u0120MERCHANTABILITY": 8094, "service": 8095, "\u0120Michael": 8096, "ableView": 8097, "Debug": 8098, "okes": 8099, "She": 8100, "\u0120guess": 8101, "\u0120Java": 8102, "_PATH": 8103, "\u0120particularly": 8104, "\u0120II": 8105, "\u0120domain": 8106, "\u00e5\u00b9\u00b4": 8107, "\u0120reduce": 8108, "-left": 8109, "real": 8110, "\u0120appears": 8111, "\u0120como": 8112, "\u0120Unit": 8113, "\u0120Govern": 8114, "ali": 8115, "allel": 8116, "\u0120Jew": 8117, "_I": 8118, "\u0120cos": 8119, ".color": 8120, "\u0120Global": 8121, "\u0120tele": 8122, "ben": 8123, "_trans": 8124, "\u0120reasons": 8125, "\u0120emb": 8126, "ensity": 8127, "lines": 8128, "omin": 8129, "Screen": 8130, "\u00d0\u00b0\u00d1\u0124": 8131, "pects": 8132, "clip": 8133, "foo": 8134, "rent": 8135, "\u0120af": 8136, "\u0120danger": 8137, "iling": 8138, "Names": 8139, "Our": 8140, "\u0120distribution": 8141, "While": 8142, "SL": 8143, "Write": 8144, "\u0120goto": 8145, "\u0120colors": 8146, "\u0120powerful": 8147, "kin": 8148, "\u0120depth": 8149, "ercial": 8150, "\u0120Congress": 8151, "\u0120Market": 8152, "Db": 8153, "under": 8154, "\u0120Last": 8155, "\u00c3\u0141": 8156, "greg": 8157, "\u0120posts": 8158, "_URL": 8159, "otos": 8160, "Don": 8161, "\u0120micro": 8162, "\u0120arrest": 8163, "\u00d0\u00bf": 8164, "\u0120(@": 8165, "\u0120Hot": 8166, "\u0120Index": 8167, ";&": 8168, "#!": 8169, "\u0120Nor": 8170, "\u0120Cap": 8171, "-(": 8172, "\u0120interested": 8173, "pear": 8174, "\u0120rent": 8175, "\u0120album": 8176, "olicy": 8177, ".lang": 8178, ".trans": 8179, ".format": 8180, "\u0120{\u010d\u010a\u010d\u010a": 8181, "phere": 8182, "\u0120axis": 8183, "\u0120Business": 8184, "ersistence": 8185, "urr": 8186, "\u0120minimum": 8187, "endor": 8188, "\u0120SD": 8189, "113": 8190, "\u0120Internet": 8191, "\u00e5\u00a4": 8192, "Exp": 8193, "iverse": 8194, "MM": 8195, "\u0120obvious": 8196, "\u0120basis": 8197, "\u0120science": 8198, "\u0120budget": 8199, "izations": 8200, "PA": 8201, "\u0120flags": 8202, "pret": 8203, "LOCK": 8204, "\u0120variety": 8205, "\u0120truth": 8206, "dt": 8207, "\u0120gone": 8208, "\u0120battle": 8209, "<std": 8210, "\u0120Sil": 8211, "rf": 8212, "uda": 8213, "\u0120erot": 8214, "\u0120Cam": 8215, "\u0120station": 8216, "\u0120'</": 8217, "cheme": 8218, "\u0120Sun": 8219, "\u0120finished": 8220, "\u0120shop": 8221, "\u0120Kore": 8222, "\u0120eight": 8223, "_REG": 8224, "ND": 8225, ">,": 8226, "\"><?": 8227, "(num": 8228, "\u0109inline": 8229, "Transaction": 8230, ".On": 8231, "\u0120mail": 8232, "rey": 8233, "results": 8234, "\u0120nav": 8235, "IMIT": 8236, "_ids": 8237, "Make": 8238, "\u00e5\u012c": 8239, "Modal": 8240, "\u0120LOG": 8241, "\u0120Sur": 8242, "\u0120instanceof": 8243, "\u0120overall": 8244, "\u0120Information": 8245, "\u0120construction": 8246, "_FILE": 8247, "but": 8248, "\u0120medic": 8249, "\u0120duration": 8250, "itness": 8251, "agent": 8252, "AV": 8253, "\u0120seven": 8254, "olf": 8255, "\u0120}}\u010a": 8256, "\"],\u010a": 8257, "170": 8258, "122": 8259, "\u0120calling": 8260, "\u0120ans": 8261, "throws": 8262, "orizontal": 8263, "\u0120useState": 8264, ".fl": 8265, "\u0120Status": 8266, "\u0120Online": 8267, "RR": 8268, "\u0120Rich": 8269, "\u0120Hill": 8270, "\u0120brain": 8271, "\u0120followed": 8272, "240": 8273, "emic": 8274, "\u0120slight": 8275, "\u0120insurance": 8276, ".Array": 8277, "\u0120abstract": 8278, "\u0120Sum": 8279, "redirect": 8280, "owner": 8281, "(msg": 8282, "\u0120Clinton": 8283, "Non": 8284, "\u0109ex": 8285, "\u0120volume": 8286, "\u0120EventArgs": 8287, "-L": 8288, "\u0120Dim": 8289, "\u0120Mart": 8290, "\u0120cursor": 8291, "\u0120implementation": 8292, "urred": 8293, "\u0120larger": 8294, ");\u010a\u010a\u010a": 8295, "'+": 8296, ".transform": 8297, "\u0120upload": 8298, "\u0120\u0120\u0120\u0120\u0120\u0120\u0120\u0120\u0120\u0120\u0120\u0120\u0120\u0120\u0120\u0120\u0120\u0120\u0120\u0120\u0120\u0120\u0120\u0120\u0120\u0120\u0120\u0120\u0120\u0120\u0120\u0120\u0120\u0120\u0120\u0120\u0120\u0120\u0120\u0120\u0120\u0120\u0120\u0120\u0120\u0120\u0120\u0120\u0120\u0120\u0120\u0120\u0120\u0120\u0120": 8299, "Draw": 8300, "nel": 8301, "\u0109float": 8302, "qrt": 8303, "\u0120Network": 8304, "\u0120tit": 8305, "Axis": 8306, ".android": 8307, "\u0120completed": 8308, "\u0120mur": 8309, "\u0120columns": 8310, "xc": 8311, "\u0120supply": 8312, "iminal": 8313, "\u0120spr": 8314, "================================================================": 8315, "\u0120units": 8316, "(u": 8317, "mi": 8318, "replace": 8319, "[key": 8320, "\u00e0\u00b9": 8321, "antic": 8322, "\u0120payment": 8323, ",B": 8324, "\u0120Apple": 8325, "gin": 8326, "Required": 8327, "#+": 8328, "lands": 8329, "\u0120squ": 8330, "\u0120factor": 8331, "dec": 8332, "\u0120strength": 8333, "\u0120boy": 8334, "\u0120balance": 8335, "\u0120sources": 8336, "screen": 8337, "-top": 8338, "\u0120Amazon": 8339, "\u0120hidden": 8340, "\u00d0\u00b5\u00d1\u0124": 8341, "_client": 8342, "\u0120eat": 8343, ".display": 8344, "\u0120\u00c2\u00bb": 8345, "\u0120trigger": 8346, "anager": 8347, "\u0120tro": 8348, "\u0120claims": 8349, "ford": 8350, "\u0120Company": 8351, "\u0120gift": 8352, ",:": 8353, "_app": 8354, "handle": 8355, "\u0120produce": 8356, "/lib": 8357, "512": 8358, "\u0120-*": 8359, "\u0109set": 8360, "'];": 8361, "arc": 8362, "ander": 8363, "\u0120Engine": 8364, "\u0120attributes": 8365, "task": 8366, "<=": 8367, "(N": 8368, "\u0120warm": 8369, "which": 8370, "\u0120Fore": 8371, "agnost": 8372, "mys": 8373, "\u0120tal": 8374, "\u0120Sal": 8375, "gi": 8376, "\u0120Print": 8377, "\u0120TRUE": 8378, "\u0120\u00d0\u00be": 8379, ".UI": 8380, "\u0120flash": 8381, "roperty": 8382, ".location": 8383, "\u0120Mill": 8384, "bi": 8385, "contr": 8386, ".request": 8387, "\u0120Sam": 8388, "\u0120negative": 8389, "kit": 8390, "\u0120sett": 8391, ".printStackTrace": 8392, "abe": 8393, "\u0109i": 8394, "\u0120burn": 8395, "\u0120society": 8396, "Cache": 8397, "\u0120Security": 8398, ".models": 8399, "\u0120WARRANTY": 8400, "_up": 8401, "ceive": 8402, "\u0120clients": 8403, ".Tr": 8404, "\u0120providing": 8405, "\u0120rout": 8406, "material": 8407, "\u0120||\u010a": 8408, "\u0120Ser": 8409, "\u0120Office": 8410, "FTWARE": 8411, "\u0120'$": 8412, "\u0120foc": 8413, "\u0120excell": 8414, "\u0120cat": 8415, "normal": 8416, "\u0120determine": 8417, "\u0109uint": 8418, "Pane": 8419, "\u0120employees": 8420, "\u0120Texas": 8421, "\u0120traff": 8422, "\u0120Report": 8423, "anta": 8424, "\u0120Box": 8425, "\u0120django": 8426, "\u0120partner": 8427, "EB": 8428, "LINE": 8429, "\u0120feeling": 8430, "\u0120civil": 8431, "(float": 8432, "Sql": 8433, "\u0120wouldn": 8434, ".init": 8435, ".left": 8436, "-v": 8437, "_level": 8438, "'}": 8439, "AF": 8440, "\u0120loading": 8441, "\u0120Only": 8442, "\u0120cookies": 8443, "\u0120Gl": 8444, "CO": 8445, "\u0120strategy": 8446, "('./": 8447, "\u0120ship": 8448, "poses": 8449, "\u0120signal": 8450, "\u0120alpha": 8451, ".pop": 8452, "Radius": 8453, "\u0120replace": 8454, "_DIR": 8455, "counter": 8456, "bservable": 8457, "ela": 8458, "Weight": 8459, "hash": 8460, "bose": 8461, "fx": 8462, "\u0120Email": 8463, "\u0120refer": 8464, "localhost": 8465, "_RO": 8466, "iques": 8467, "Step": 8468, "\u0120ahead": 8469, "(View": 8470, "\u0120Services": 8471, "\u0120Json": 8472, "essor": 8473, "\u0120pun": 8474, "\u0120appropriate": 8475, "akers": 8476, "osen": 8477, "posing": 8478, "\u0120agent": 8479, "fc": 8480, "\u0120transfer": 8481, "\u0120invalid": 8482, "\u0120Research": 8483, "Vertex": 8484, "\u0120gay": 8485, "\u0120journal": 8486, "[x": 8487, "\u0120\"\",\u010a": 8488, "\u0120Well": 8489, ".Tasks": 8490, "Spec": 8491, "\u0120ol": 8492, "\u0120spend": 8493, "\u0120Australia": 8494, "Match": 8495, ".junit": 8496, "\u0120\u0120\u0120\u0120\u0120\u0120\u0120\u0120\u0120\u0120\u0120\u0120\u0120\u0120\u0120\u0120\u0120\u0120\u0120\u0120\u0120\u0120\u0120\u0120\u0120\u0120\u0120\u0120\u0120\u0120\u0120\u0120\u0120\u0120\u0120\u0120\u0120": 8497, "\u0120MAX": 8498, "izable": 8499, "clusive": 8500, "_valid": 8501, "\u0120quarter": 8502, "yan": 8503, "005": 8504, "\u0120Edit": 8505, "arden": 8506, "=new": 8507, "\u0120frag": 8508, "Bit": 8509, "zi": 8510, "aine": 8511, "udd": 8512, ".Object": 8513, "debug": 8514, "\u0120cash": 8515, "_IM": 8516, "\u0120een": 8517, "\u0120commercial": 8518, "\u0120Video": 8519, "loader": 8520, "\u0120fixed": 8521, "\u0120applications": 8522, "\u0120_,": 8523, "\u0120Russia": 8524, "itect": 8525, "_(": 8526, "\u0120Block": 8527, "\u0120san": 8528, "\u0120Tom": 8529, "\u0120perhaps": 8530, "\u0120sig": 8531, "levant": 8532, "\u0120corpor": 8533, "ataset": 8534, "ronic": 8535, "xe": 8536, "\u0120eth": 8537, "Some": 8538, "pop": 8539, "_OK": 8540, "\u0120tend": 8541, ".Res": 8542, "_and": 8543, "\u0120reviews": 8544, "\u0120wild": 8545, "117": 8546, "\u0120degree": 8547, ".O": 8548, ".objects": 8549, "_args": 8550, "nil": 8551, "\u0120disabled": 8552, "Parent": 8553, "\u0120notes": 8554, "\u0120\"\"\u010a": 8555, "(state": 8556, "istrict": 8557, "\u0120logging": 8558, ".IO": 8559, "\u0120Mal": 8560, "DM": 8561, "\u0120xml": 8562, "\u0120Robert": 8563, "elen": 8564, "layout": 8565, "fol": 8566, "']))": 8567, ",b": 8568, "\u0120Jer": 8569, "filename": 8570, "\u0120fan": 8571, "\u0120Custom": 8572, "=\"\"": 8573, "\u0120Die": 8574, "Bundle": 8575, ".utils": 8576, "\u0120trip": 8577, "MB": 8578, "\u0120soft": 8579, "_MODE": 8580, "\u0120applicable": 8581, "\u0120upper": 8582, "ERVER": 8583, "_al": 8584, "_LOG": 8585, "Here": 8586, "wp": 8587, "\u0120Server": 8588, "\u0120Client": 8589, "\u0120chem": 8590, "Scroll": 8591, "\u0120highest": 8592, "\u0120Select": 8593, "\u0120\"@": 8594, "\u0120Why": 8595, "Sec": 8596, "heel": 8597, "Operation": 8598, "\u0120connected": 8599, "irmed": 8600, "\u0120citiz": 8601, "\u0120Che": 8602, "\u0120forces": 8603, "\u0120www": 8604, "Root": 8605, "ANCE": 8606, "Many": 8607, "icip": 8608, "rgan": 8609, "220": 8610, "\u0120Tor": 8611, "\u0120Press": 8612, "\u0120Mor": 8613, "-line": 8614, "uled": 8615, ">\\": 8616, "\u0120thus": 8617, "\u0120Register": 8618, "hol": 8619, "\u0120Chinese": 8620, "\u0120posted": 8621, "\u0120magn": 8622, "abilities": 8623, "\u0120disease": 8624, "\u0120remains": 8625, "\u0120Prof": 8626, "-form": 8627, "\u0120cin": 8628, "organ": 8629, "icate": 8630, "\u0120stress": 8631, "]*": 8632, "\u0120----------------------------------------------------------------": 8633, "_context": 8634, "orry": 8635, "\u0120died": 8636, "mat": 8637, "\u0120starts": 8638, ".Message": 8639, "\u0120runs": 8640, "\u0120guide": 8641, "\u0120warranty": 8642, "entials": 8643, "dict": 8644, "\u0120Size": 8645, "uler": 8646, "\u0120responsible": 8647, "_SET": 8648, "\u0120containing": 8649, "\u0120Price": 8650, "||": 8651, "350": 8652, "FS": 8653, "\u0120emp": 8654, "_button": 8655, "(uint": 8656, "\u0120suff": 8657, "pth": 8658, "\u0120definitely": 8659, "pute": 8660, "\u0120marketing": 8661, "\u0120WH": 8662, "\u0120Sie": 8663, "+=": 8664, "OLOR": 8665, "\u0120consult": 8666, "\u0120signed": 8667, "\u0120sequence": 8668, "lee": 8669, "\u0120requirements": 8670, "hy": 8671, "Express": 8672, "MT": 8673, "sey": 8674, "\u0120ult": 8675, "\u00e5\u00ae": 8676, "elligence": 8677, "\u0120analy": 8678, "\u0120dress": 8679, "engine": 8680, "\u0120Great": 8681, "\u0120Android": 8682, "\u0120Alex": 8683, "mode": 8684, "Dictionary": 8685, ".Date": 8686, "\u00e4\u00bd": 8687, "VICE": 8688, "\u0120families": 8689, "\u0120Russian": 8690, "\u0120Times": 8691, ".call": 8692, "$(": 8693, "Profile": 8694, "\u0120folder": 8695, "ches": 8696, "\u0120legis": 8697, "_row": 8698, "unes": 8699, "\u00d9\u0126": 8700, "\u0120}).": 8701, "Assert": 8702, "agen": 8703, "\u0120Hand": 8704, "Iter": 8705, "\u0120biggest": 8706, "oreach": 8707, "\u0120polic": 8708, "\u0120permissions": 8709, "\u0120showed": 8710, "\u0120Element": 8711, "\u0120topic": 8712, "\u00e2\u0122\u0136\u00e2\u0122\u0136": 8713, "road": 8714, "\u0120Bank": 8715, "record": 8716, "\u0120partners": 8717, "\u0120Ref": 8718, "essions": 8719, "\u0120assess": 8720, "UST": 8721, "\u0120Party": 8722, "produ": 8723, "LC": 8724, "\u0120ul": 8725, ".form": 8726, "hide": 8727, "copy": 8728, "UTF": 8729, "\u0120SOFTWARE": 8730, "\u010d\u010a\u010d\u010a\u010d\u010a": 8731, "\u0120Lin": 8732, "una": 8733, "ugar": 8734, "\u0120administration": 8735, "\u0120opening": 8736, "\u0120scan": 8737, "\u0120continued": 8738, "component": 8739, ".sp": 8740, "\u0120happens": 8741, "ummy": 8742, "\u0120PR": 8743, ".File": 8744, "\u0120Download": 8745, "Loading": 8746, "di": 8747, "\u0120waiting": 8748, "_ADD": 8749, "Tab": 8750, ".querySelector": 8751, "\u0120economy": 8752, "\u0120French": 8753, "txt": 8754, "\u0120fant": 8755, "_;\u010a": 8756, "Holder": 8757, "SH": 8758, "004": 8759, "\u0120numpy": 8760, "\u0120street": 8761, "\u0120male": 8762, "\\Model": 8763, "anging": 8764, "333": 8765, "\u0120Bill": 8766, "\u0120previously": 8767, "BI": 8768, "\u0120Secret": 8769, "\u0120mist": 8770, "\u0120Field": 8771, "ups": 8772, "\u0120Process": 8773, "\u0120kept": 8774, "\u0120OT": 8775, "\u0120traditional": 8776, ".i": 8777, "amin": 8778, "\u0120helps": 8779, "Any": 8780, "origin": 8781, "ilters": 8782, "ju": 8783, "desc": 8784, "\u0120Account": 8785, "\u0120)\u010d\u010a": 8786, "ktop": 8787, "olly": 8788, "\u0120fs": 8789, "\u0120\u00ea": 8790, "\u0120ut": 8791, "\u0120central": 8792, "(test": 8793, ".An": 8794, "\u0120satisf": 8795, "GR": 8796, "\u0120Full": 8797, "\u0120heat": 8798, "iber": 8799, "\u0120onto": 8800, "mos": 8801, "Schema": 8802, "\u0120factory": 8803, "\".$": 8804, "aws": 8805, "Statement": 8806, "(target": 8807, "\u0109new": 8808, ".be": 8809, "\u0120guest": 8810, "\u0120mal": 8811, "ARY": 8812, "\u0120reached": 8813, "\u0120mouse": 8814, "\u0120challenge": 8815, "\u0109double": 8816, "\u0120Tem": 8817, "\u0120terror": 8818, "\u0120extract": 8819, "_TO": 8820, "\u0120separate": 8821, "\u0120mir": 8822, "help": 8823, "\u0120capacity": 8824, "\u0120Property": 8825, "kan": 8826, "_create": 8827, "\u0120Light": 8828, ".parent": 8829, "\u0120understanding": 8830, "\u0120easier": 8831, "\u0120|=": 8832, "\u0120enh": 8833, "\u0120fat": 8834, "\u0120protest": 8835, "amm": 8836, "_AT": 8837, "-of": 8838, "ils": 8839, "\u0120Oh": 8840, "\u0120psych": 8841, "\u0120$.": 8842, "inds": 8843, "\u0120relative": 8844, "shop": 8845, "short": 8846, "\u0120Sand": 8847, "210": 8848, "uestion": 8849, "\u0120fear": 8850, "/\u010a\u010a": 8851, ".context": 8852, "\u0120schools": 8853, "\u0120serve": 8854, "zone": 8855, "_db": 8856, "\u0120majority": 8857, "example": 8858, "\u0120lang": 8859, "\u0109\u0120\u0120": 8860, "Register": 8861, "endo": 8862, "\u0120processing": 8863, "_template": 8864, "-user": 8865, "\u0120eg": 8866, "COM": 8867, "\u0120Blue": 8868, "iro": 8869, "\u0120remote": 8870, "\u0120IT": 8871, "#!/": 8872, "\u0120redistrib": 8873, "124": 8874, "raz": 8875, "\u0120Since": 8876, "\u0120Tur": 8877, "135": 8878, "Background": 8879, "===": 8880, "\u0120reflect": 8881, "\u0120pros": 8882, "cmd": 8883, "\u0120whom": 8884, "Compat": 8885, "\u0120Are": 8886, "Identifier": 8887, "\u0120Thom": 8888, "_port": 8889, "gu": 8890, "\u0120monitor": 8891, "rm": 8892, "\u0120patient": 8893, "verter": 8894, "\u0120gain": 8895, "-ui": 8896, "Inst": 8897, "\u0120dies": 8898, "118": 8899, "Area": 8900, "_filter": 8901, "\u0120grat": 8902, "\u0120reality": 8903, "ordinate": 8904, "olved": 8905, "Contact": 8906, "\u0120compliance": 8907, "_or": 8908, "\u0120Var": 8909, "dl": 8910, "\u0120append": 8911, "GER": 8912, "(max": 8913, ".render": 8914, "\u0120dynamic": 8915, "ordinates": 8916, "_options": 8917, "_column": 8918, "\u0120batter": 8919, "space": 8920, "La": 8921, "\u0120Source": 8922, "/bin": 8923, "\u0120dos": 8924, "\u0120Board": 8925, "\u0120Thread": 8926, "\u0120AL": 8927, "(config": 8928, "144": 8929, "\u0120Mer": 8930, "\u0120miles": 8931, "_header": 8932, "ETHOD": 8933, "izz": 8934, "\u0120benefit": 8935, "\u0120integr": 8936, "(current": 8937, "ulo": 8938, ".default": 8939, "\u0120Div": 8940, "\u0120ton": 8941, "oth": 8942, "ervation": 8943, "edom": 8944, "\u0120baby": 8945, "ceived": 8946, ".top": 8947, "riority": 8948, "\u0120Local": 8949, "riage": 8950, "\u0120attacks": 8951, "\u0120hospital": 8952, "168": 8953, "\u0120female": 8954, "\u0120Login": 8955, "\u0120Flor": 8956, "\u0120chain": 8957, "ashion": 8958, "Texture": 8959, "Save": 8960, "\u0120farm": 8961, ".contains": 8962, ".Test": 8963, "\u0120knows": 8964, "\u0120generally": 8965, "ipeline": 8966, "\u0120meant": 8967,
[...]
